{
  "version": "1.0",
  "truncation": null,
  "padding": null,
  "added_tokens": [],
  "normalizer": null,
  "pre_tokenizer": {
    "type": "BertPreTokenizer"
  },
  "post_processor": {
    "type": "BertProcessing",
    "sep": [
      "[SEP]",
      1
    ],
    "cls": [
      "[CLS]",
      2
    ]
  },
  "decoder": {
    "type": "WordPiece",
    "prefix": "##",
    "cleanup": true
  },
  "model": {
    "type": "WordPiece",
    "unk_token": "[UNK]",
    "continuing_subword_prefix": "##",
    "max_input_chars_per_word": 4,
    "vocab": {
      "0": 0,
      "1": 1,
      "2": 2,
      "3": 3,
      "4": 4,
      "5": 5,
      "6": 6,
      "7": 7,
      "8": 8,
      "9": 9,
      "a": 10,
      "b": 11,
      "c": 12,
      "d": 13,
      "e": 14,
      "f": 15,
      "##f": 16,
      "##8": 17,
      "##0": 18,
      "##3": 19,
      "##7": 20,
      "##2": 21,
      "##5": 22,
      "##b": 23,
      "##6": 24,
      "##9": 25,
      "##c": 26,
      "##4": 27,
      "##d": 28,
      "##a": 29,
      "##e": 30,
      "##1": 31,
      "##00": 32,
      "00": 33,
      "000": 34,
      "0000": 35,
      "##ff": 36,
      "##01": 37,
      "02": 38,
      "##800": 39,
      "##50": 40,
      "##23": 41,
      "0800": 42,
      "0a": 43,
      "020": 44,
      "004": 45,
      "0a00": 46,
      "01": 47,
      "002": 48,
      "##c0": 49,
      "##400": 50,
      "##54": 51,
      "0f": 52,
      "##7c": 53,
      "##12": 54,
      "##e5": 55,
      "##500": 56,
      "23": 57,
      "06": 58,
      "7c": 59,
      "e5": 60,
      "27": 61,
      "52": 62,
      "##bb": 63,
      "277c": 64,
      "7ce5": 65,
      "e523": 66,
      "0027": 67,
      "4500": 68,
      "020f": 69,
      "0045": 70,
      "5400": 71,
      "##34": 72,
      "123": 73,
      "0012": 74,
      "350": 75,
      "400": 76,
      "1235": 77,
      "3502": 78,
      "5254": 79,
      "0208": 80,
      "501": 81,
      "##4d": 82,
      "bb": 83,
      "c00": 84,
      "01bb": 85,
      "fff": 86,
      "c00a": 87,
      "##52": 88,
      "34d": 89,
      "ffff": 90,
      "10": 91,
      "##40": 92,
      "0002": 93,
      "ff": 94,
      "0040": 95,
      "2352": 96,
      "4006": 97,
      "5010": 98,
      "d8": 99,
      "0f01": 100,
      "bbc0": 101,
      "##08": 102,
      "34d8": 103,
      "##5b": 104,
      "##0a": 105,
      "0005": 106,
      "05b": 107,
      "10ff": 108,
      "05b4": 109,
      "##80": 110,
      "000a": 111,
      "18": 112,
      "800": 113,
      "2308": 114,
      "0080": 115,
      "d9": 116,
      "##af": 117,
      "0600": 118,
      "0028": 119,
      "4000": 120,
      "##fa": 121,
      "8006": 122,
      "03": 123,
      "b40": 124,
      "28": 125,
      "5018": 126,
      "18ff": 127,
      "34d9": 128,
      "0f34": 129,
      "0a01": 130,
      "##401": 131,
      "0d": 132,
      "##10": 133,
      "##60": 134,
      "##e8": 135,
      "2801": 136,
      "##8c": 137,
      "##11": 138,
      "##9c": 139,
      "##af0": 140,
      "##b0a": 141,
      "##c0a": 142,
      "f0": 143,
      "##e00": 144,
      "##8d": 145,
      "##1b": 146,
      "##83": 147,
      "##e7": 148,
      "##19": 149,
      "0c": 150,
      "##6b": 151,
      "faf0": 152,
      "##04": 153,
      "##94": 154,
      "##64": 155,
      "10fa": 156,
      "##f5": 157,
      "##ec": 158,
      "##6d": 159,
      "##75": 160,
      "##6c": 161,
      "##68": 162,
      "b401": 163,
      "##a9": 164,
      "##7d": 165,
      "##30a": 166,
      "12": 167,
      "##e4": 168,
      "b402": 169,
      "##40a": 170,
      "##89": 171,
      "##53": 172,
      "##76": 173,
      "##ad": 174,
      "##900": 175,
      "##600": 176,
      "##13": 177,
      "##c00": 178,
      "##22": 179,
      "##69": 180,
      "##73": 181,
      "##65": 182,
      "##74": 183,
      "##b00": 184,
      "##0c": 185,
      "##950": 186,
      "##1d": 187,
      "##1f": 188,
      "##5c": 189,
      "##bc": 190,
      "##5d": 191,
      "##b3": 192,
      "##6f": 193,
      "##a00": 194,
      "##150": 195,
      "##000": 196,
      "##29": 197,
      "##a8": 198,
      "##59": 199,
      "##e3": 200,
      "##1c": 201,
      "##ed": 202,
      "##6a": 203,
      "##0d": 204,
      "09": 205,
      "##e9": 206,
      "##d00": 207,
      "##f3": 208,
      "48": 209,
      "##eb": 210,
      "##17": 211,
      "##14": 212,
      "##24": 213,
      "0044": 214,
      "##e2": 215,
      "##100": 216,
      "##79": 217,
      "##15": 218,
      "##700": 219,
      "##300": 220,
      "##ac": 221,
      "##63": 222,
      "##20": 223,
      "##f00": 224,
      "##e0": 225,
      "##f9": 226,
      "##1a": 227,
      "##7b": 228,
      "##c3": 229,
      "##72": 230,
      "##cc": 231,
      "##6e": 232,
      "b400": 233,
      "##18": 234,
      "0b": 235,
      "##d3": 236,
      "50": 237,
      "##7a": 238,
      "04": 239,
      "08": 240,
      "##ef": 241,
      "##dc": 242,
      "0050": 243,
      "##d9": 244,
      "0f00": 245,
      "##61": 246,
      "##9b": 247,
      "##93": 248,
      "68": 249,
      "##fb": 250,
      "##62": 251,
      "##ea": 252,
      "##d4": 253,
      "1b": 254,
      "b403": 255,
      "75": 256,
      "##a5": 257,
      "##77": 258,
      "19": 259,
      "##fc": 260,
      "##f2": 261,
      "##ab": 262,
      "##a0": 263,
      "##200": 264,
      "##a3": 265,
      "##25": 266,
      "0001": 267,
      "c8": 268,
      "##e1": 269,
      "##a4": 270,
      "0008": 271,
      "000c": 272,
      "a9": 273,
      "##dd": 274,
      "##e6": 275,
      "##f4": 276,
      "##03": 277,
      "##58": 278,
      "##a2": 279,
      "##b4": 280,
      "##b0": 281,
      "##548": 282,
      "##1e": 283,
      "##26": 284,
      "##78": 285,
      "##33": 286,
      "##b8": 287,
      "##98": 288,
      "000b": 289,
      "000e": 290,
      "000d": 291,
      "0009": 292,
      "000f": 293,
      "##a1": 294,
      "06c": 295,
      "0007": 296,
      "6d": 297,
      "##f8": 298,
      "b8": 299,
      "##fd": 300,
      "##750": 301,
      "##b9": 302,
      "##550": 303,
      "0100": 304,
      "##57": 305,
      "##43": 306,
      "83": 307,
      "##90": 308,
      "003": 309,
      "##16": 310,
      "##aa": 311,
      "6c": 312,
      "##70": 313,
      "##28": 314,
      "54": 315,
      "10f5": 316,
      "##f0": 317,
      "f548": 318,
      "8d": 319,
      "05": 320,
      "##2c": 321,
      "2800": 322,
      "##2b": 323,
      "##88": 324,
      "8c": 325,
      "59": 326,
      "ec": 327,
      "4d": 328,
      "##f1": 329,
      "0010": 330,
      "ad": 331,
      "##44": 332,
      "dd": 333,
      "1c": 334,
      "9c": 335,
      "13": 336,
      "440": 337,
      "##5e": 338,
      "##67": 339,
      "c3": 340,
      "##2a": 341,
      "20": 342,
      "2b": 343,
      "##8a": 344,
      "##99": 345,
      "0006": 346,
      "1d": 347,
      "##4c": 348,
      "00d": 349,
      "f3": 350,
      "00c": 351,
      "##7f": 352,
      "29": 353,
      "bc": 354,
      "##bd": 355,
      "fc": 356,
      "ac": 357,
      "##71": 358,
      "cd": 359,
      "##e50": 360,
      "24": 361,
      "22": 362,
      "74": 363,
      "73": 364,
      "07": 365,
      "##81": 366,
      "7d": 367,
      "6b": 368,
      "36": 369,
      "80": 370,
      "43": 371,
      "b3": 372,
      "6a": 373,
      "##ee": 374,
      "##66": 375,
      "ed": 376,
      "5d": 377,
      "3d": 378,
      "63": 379,
      "5c": 380,
      "50c0": 381,
      "a8": 382,
      "98": 383,
      "a5": 384,
      "cc": 385,
      "65": 386,
      "14": 387,
      "##bf": 388,
      "##9d": 389,
      "fd": 390,
      "f8": 391,
      "3c": 392,
      "##a50": 393,
      "##2d": 394,
      "dc": 395,
      "7a": 396,
      "##f50": 397,
      "##b5": 398,
      "a3": 399,
      "fa": 400,
      "88": 401,
      "9d": 402,
      "93": 403,
      "060": 404,
      "4b": 405,
      "007c": 406,
      "e3": 407,
      "##f7": 408,
      "e8": 409,
      "44": 410,
      "33": 411,
      "11": 412,
      "063": 413,
      "##95": 414,
      "c01": 415,
      "70": 416,
      "0004": 417,
      "4c": 418,
      "69": 419,
      "fb": 420,
      "##b1": 421,
      "ff3": 422,
      "38": 423,
      "##55": 424,
      "##2f": 425,
      "##ae": 426,
      "e8c": 427,
      "94": 428,
      "##650": 429,
      "##a6": 430,
      "f9": 431,
      "d3": 432,
      "84": 433,
      "e4": 434,
      "06d": 435,
      "##8f": 436,
      "##85": 437,
      "25": 438,
      "##21": 439,
      "##e34": 440,
      "c4": 441,
      "##7e": 442,
      "e8c8": 443,
      "7512": 444,
      "b9": 445,
      "9b": 446,
      "45": 447,
      "##fe": 448,
      "c7": 449,
      "79": 450,
      "15": 451,
      "35": 452,
      "##8e": 453,
      "89": 454,
      "34": 455,
      "##56": 456,
      "##51": 457,
      "##4e": 458,
      "49": 459,
      "##86": 460,
      "##2e": 461,
      "90": 462,
      "61": 463,
      "32": 464,
      "##27": 465,
      "##f6": 466,
      "12e8": 467,
      "d4": 468,
      "e2": 469,
      "9a": 470,
      "##91": 471,
      "ffc": 472,
      "e9": 473,
      "##634": 474,
      "53": 475,
      "8b": 476,
      "c9": 477,
      "##f34": 478,
      "##a7": 479,
      "0e": 480,
      "2d": 481,
      "##234": 482,
      "cb": 483,
      "a2": 484,
      "bd": 485,
      "37": 486,
      "72": 487,
      "4402": 488,
      "##9a": 489,
      "0060": 490,
      "8900": 491,
      "58": 492,
      "464": 493,
      "78": 494,
      "a4": 495,
      "f2": 496,
      "##82": 497,
      "ff0": 498,
      "4401": 499,
      "b4": 500,
      "c00f": 501,
      "##96": 502,
      "6f": 503,
      "##134": 504,
      "9f": 505,
      "40": 506,
      "17": 507,
      "39": 508,
      "76": 509,
      "f4": 510,
      "99": 511,
      "60": 512,
      "##011": 513,
      "64": 514,
      "##ba": 515,
      "e0": 516,
      "4400": 517,
      "a0": 518,
      "##97": 519,
      "2c": 520,
      "ffd": 521,
      "8f": 522,
      "c6": 523,
      "##b6": 524,
      "b0": 525,
      "7b": 526,
      "##45": 527,
      "##9e": 528,
      "ff00": 529,
      "0089": 530,
      "c2": 531,
      "600": 532,
      "2e": 533,
      "3a": 534,
      "5b": 535,
      "##c08": 536,
      "b5": 537,
      "3b": 538,
      "c5": 539,
      "##b2": 540,
      "1f": 541,
      "ea": 542,
      "##be": 543,
      "1a": 544,
      "6000": 545,
      "ab": 546,
      "f5": 547,
      "62": 548,
      "##b7": 549,
      "1200": 550,
      "##41": 551,
      "eb": 552,
      "##5a": 553,
      "454": 554,
      "2a": 555,
      "c0": 556,
      "##734": 557,
      "##9f": 558,
      "##046": 559,
      "8a00": 560,
      "##87": 561,
      "##5f": 562,
      "bc0a": 563,
      "aa": 564,
      "7f": 565,
      "82": 566,
      "db": 567,
      "##0f": 568,
      "42": 569,
      "8a": 570,
      "013": 571,
      "d926": 572,
      "d890": 573,
      "cf": 574,
      "d5": 575,
      "df": 576,
      "92": 577,
      "##8b": 578,
      "30": 579,
      "##92": 580,
      "fe": 581,
      "16": 582,
      "##84": 583,
      "0f0a": 584,
      "f7": 585,
      "ce": 586,
      "01c": 587,
      "d868": 588,
      "5b0a": 589,
      "1000": 590,
      "85": 591,
      "8000": 592,
      "95": 593,
      "8011": 594,
      "36e7": 595,
      "##46": 596,
      "4f": 597,
      "ff08": 598,
      "a1": 599,
      "9c0a": 600,
      "060d": 601,
      "c012": 602,
      "##4f": 603,
      "1e": 604,
      "6e": 605,
      "##d0": 606,
      "4403": 607,
      "b2": 608,
      "0e00": 609,
      "2f": 610,
      "d0": 611,
      "7c0": 612,
      "d86f": 613,
      "e6": 614,
      "0003": 615,
      "56": 616,
      "681b": 617,
      "5e": 618,
      "0200": 619,
      "b6": 620,
      "bf": 621,
      "0400": 622,
      "##5c6": 623,
      "b1": 624,
      "3300": 625,
      "e7": 626,
      "4b0a": 627,
      "001e": 628,
      "96": 629,
      "de": 630,
      "008a": 631,
      "55": 632,
      "##120": 633,
      "4e": 634,
      "##48": 635,
      "02ff": 636,
      "ca": 637,
      "cc0a": 638,
      "3f": 639,
      "f08": 640,
      "d2": 641,
      "##cf": 642,
      "da": 643,
      "bbb": 644,
      "f6": 645,
      "0020": 646,
      "8c0a": 647,
      "##49": 648,
      "##a84": 649,
      "440a": 650,
      "c80a": 651,
      "830a": 652,
      "##06": 653,
      "040a": 654,
      "4cc": 655,
      "0d00": 656,
      "4a": 657,
      "653": 658,
      "##36": 659,
      "##508": 660,
      "d950": 661,
      "853": 662,
      "e7d": 663,
      "264": 664,
      "5a": 665,
      "##d6": 666,
      "##d1": 667,
      "e150": 668,
      "7c00": 669,
      "##09": 670,
      "d1": 671,
      "81": 672,
      "##540": 673,
      "0c0a": 674,
      "##4a": 675,
      "##42": 676,
      "##c38": 677,
      "ba50": 678,
      "ba": 679,
      "a7": 680,
      "3e50": 681,
      "00a5": 682,
      "e40a": 683,
      "d8f9": 684,
      "130a": 685,
      "0f75": 686,
      "##cd": 687,
      "430a": 688,
      "d92b": 689,
      "d88c": 690,
      "d90d": 691,
      "d952": 692,
      "d00": 693,
      "##c5": 694,
      "434": 695,
      "##408": 696,
      "d84c": 697,
      "b7": 698,
      "##4b": 699,
      "0098": 700,
      "c008": 701,
      "d90f": 702,
      "c8c0": 703,
      "d924": 704,
      "##803": 705,
      "d84e": 706,
      "d8fa": 707,
      "d8b9": 708,
      "d86d": 709,
      "d888": 710,
      "769": 711,
      "6b0a": 712,
      "0e7": 713,
      "3400": 714,
      "ae": 715,
      "31": 716,
      "2f00": 717,
      "f0a": 718,
      "77": 719,
      "##da": 720,
      "f1": 721,
      "d6": 722,
      "##47": 723,
      "1959": 724,
      "##340": 725,
      "af": 726,
      "47": 727,
      "26": 728,
      "57": 729,
      "##c2": 730,
      "d86a": 731,
      "9b00": 732,
      "21": 733,
      "d8a9": 734,
      "##94b": 735,
      "5f": 736,
      "ef": 737,
      "a6": 738,
      "87": 739,
      "00b4": 740,
      "66": 741,
      "11b": 742,
      "759c": 743,
      "d7": 744,
      "ff02": 745,
      "6f4": 746,
      "c600": 747,
      "e1": 748,
      "d8b0": 749,
      "46": 750,
      "9e": 751,
      "489": 752,
      "c1": 753,
      "d865": 754,
      "41": 755,
      "eb00": 756,
      "333": 757,
      "8dc": 758,
      "##d2": 759,
      "67": 760,
      "##6dd": 761,
      "##05": 762,
      "86": 763,
      "040": 764,
      "1120": 765,
      "##802": 766,
      "4e00": 767,
      "bb01": 768,
      "01a9": 769,
      "c70a": 770,
      "500": 771,
      "bbc": 772,
      "034": 773,
      "3500": 774,
      "7e": 775,
      "##d35": 776,
      "656e": 777,
      "7b0a": 778,
      "2046": 779,
      "ef50": 780,
      "4648": 781,
      "1500": 782,
      "97": 783,
      "be00": 784,
      "5250": 785,
      "023": 786,
      "414": 787,
      "ec50": 788,
      "5e00": 789,
      "##0c7": 790,
      "1550": 791,
      "01ff": 792,
      "01fe": 793,
      "91": 794,
      "bb3": 795,
      "1b50": 796,
      "2250": 797,
      "230a": 798,
      "0637": 799,
      "8b0a": 800,
      "7c01": 801,
      "81c": 802,
      "ec0a": 803,
      "240a": 804,
      "6c0a": 805,
      "71": 806,
      "9b0a": 807,
      "##d5": 808,
      "##8c9": 809,
      "45ff": 810,
      "##02": 811,
      "##df": 812,
      "ee": 813,
      "1600": 814,
      "330a": 815,
      "51": 816,
      "3c00": 817,
      "##1f8": 818,
      "##931": 819,
      "d11": 820,
      "fffa": 821,
      "be": 822,
      "50c": 823,
      "0b00": 824,
      "8400": 825,
      "00fc": 826,
      "1b0a": 827,
      "444": 828,
      "c950": 829,
      "300": 830,
      "ec00": 831,
      "##7c5": 832,
      "2550": 833,
      "5046": 834,
      "4c00": 835,
      "1101": 836,
      "e750": 837,
      "001d": 838,
      "04fd": 839,
      "424": 840,
      "033": 841,
      "1e4": 842,
      "9c00": 843,
      "7c02": 844,
      "fd01": 845,
      "005e": 846,
      "3c3": 847,
      "724": 848,
      "060c": 849,
      "160": 850,
      "a919": 851,
      "1400": 852,
      "d850": 853,
      "##1fb": 854,
      "1904": 855,
      "6a04": 856,
      "a5bb": 857,
      "4e4": 858,
      "86dd": 859,
      "dd60": 860,
      "fe80": 861,
      "3333": 862,
      "3b0a": 863,
      "##738": 864,
      "0607": 865,
      "8150": 866,
      "2386": 867,
      "8500": 868,
      "0034": 869,
      "200": 870,
      "2000": 871,
      "1f50": 872,
      "1100": 873,
      "a950": 874,
      "##833": 875,
      "6950": 876,
      "840a": 877,
      "3e": 878,
      "c150": 879,
      "717": 880,
      "c30a": 881,
      "2e3": 882,
      "8e00": 883,
      "340a": 884,
      "f01": 885,
      "c00e": 886,
      "f13": 887,
      "0081": 888,
      "ba00": 889,
      "3e00": 890,
      "8e": 891,
      "5c0a": 892,
      "760": 893,
      "##747": 894,
      "312": 895,
      "e950": 896,
      "9e00": 897,
      "##d7": 898,
      "0f68": 899,
      "0035": 900,
      "##db": 901,
      "##ad1": 902,
      "b30a": 903,
      "##fff": 904,
      "##d31": 905,
      "##07": 906,
      "##de": 907,
      "5750": 908,
      "##83b": 909,
      "##d96": 910,
      "301": 911,
      "##f33": 912,
      "353": 913,
      "bcc0": 914,
      "##e85": 915,
      "##732": 916,
      "##10c": 917,
      "##dc6": 918,
      "8c34": 919,
      "2500": 920,
      "##c9": 921,
      "cac": 922,
      "##ecc": 923,
      "25d": 924,
      "80c7": 925,
      "b150": 926,
      "6c00": 927,
      "e500": 928,
      "7d3": 929,
      "##0e": 930,
      "06de": 931,
      "0308": 932,
      "0204": 933,
      "29c": 934,
      "ac43": 935,
      "##7ca": 936,
      "2950": 937,
      "6400": 938,
      "db3": 939,
      "##685": 940,
      "e63": 941,
      "0250": 942,
      "##e84": 943,
      "##e9f": 944,
      "0b0a": 945,
      "##e52": 946,
      "0111": 947,
      "1b80": 948,
      "58d": 949,
      "5d9": 950,
      "##d8": 951,
      "ce0": 952,
      "5d00": 953,
      "b04": 954,
      "##019": 955,
      "##ef6": 956,
      "334": 957,
      "a04": 958,
      "7ed": 959,
      "7950": 960,
      "bf9": 961,
      "643": 962,
      "##947": 963,
      "5011": 964,
      "460": 965,
      "dcc": 966,
      "##bb8": 967,
      "4600": 968,
      "8d4": 969,
      "##94c": 970,
      "78d": 971,
      "fb0a": 972,
      "##f32": 973,
      "89c": 974,
      "##e89": 975,
      "622": 976,
      "##e43": 977,
      "##2a7": 978,
      "##e8b": 979,
      "##170": 980,
      "908": 981,
      "bbba": 982,
      "3150": 983,
      "##bc3": 984,
      "5950": 985,
      "5200": 986,
      "26b": 987,
      "952": 988,
      "##94f": 989,
      "5c3": 990,
      "7bd": 991,
      "81c7": 992,
      "ad00": 993,
      "004e": 994,
      "0334": 995,
      "47d": 996,
      "cf5": 997,
      "##2c5": 998,
      "003a": 999,
      "##6fc": 1000,
      "##6c8": 1001,
      "7b3": 1002,
      "##807": 1003,
      "##6db": 1004,
      "##a2e": 1005,
      "8950": 1006,
      "cd00": 1007,
      "##67e": 1008,
      "412": 1009,
      "##b05": 1010,
      "##778": 1011,
      "c00d": 1012,
      "f06a": 1013,
      "##eba": 1014,
      "1150": 1015,
      "1b81": 1016,
      "##6ae": 1017,
      "##0de": 1018,
      "##6b4": 1019,
      "##a8b": 1020,
      "0e76": 1021,
      "ef00": 1022,
      "##770": 1023,
      "##6a0": 1024,
      "##af4": 1025,
      "##f2b": 1026,
      "e600": 1027,
      "##721": 1028,
      "8c00": 1029,
      "c6f": 1030,
      "1b00": 1031,
      "8d00": 1032,
      "##c4": 1033,
      "##944": 1034,
      "##28e": 1035,
      "03e5": 1036,
      "01e3": 1037,
      "2600": 1038,
      "3c3f": 1039,
      "b93": 1040,
      "3017": 1041,
      "01ed": 1042,
      "7d00": 1043,
      "bf00": 1044,
      "fb00": 1045,
      "037f": 1046,
      "0405": 1047,
      "312e": 1048,
      "2803": 1049,
      "06b1": 1050,
      "c500": 1051,
      "611": 1052,
      "d60": 1053,
      "2200": 1054,
      "5c00": 1055,
      "d871": 1056,
      "6c64": 1057,
      "7247": 1058,
      "ce00": 1059,
      "0d25": 1060,
      "##c1": 1061,
      "0300": 1062,
      "1d00": 1063,
      "3833": 1064,
      "9800": 1065,
      "717b": 1066,
      "##ab1": 1067,
      "4738": 1068,
      "001c": 1069,
      "e700": 1070,
      "f600": 1071,
      "4550": 1072,
      "2b4": 1073,
      "005c": 1074,
      "06c8": 1075,
      "1822": 1076,
      "e100": 1077,
      "f800": 1078,
      "d600": 1079,
      "919": 1080,
      "##c6": 1081,
      "##759": 1082,
      "ee00": 1083,
      "e000": 1084,
      "100": 1085,
      "0480": 1086,
      "##72b": 1087,
      "6a23": 1088,
      "5700": 1089,
      "4ccc": 1090,
      "0d44": 1091,
      "7a18": 1092,
      "0c69": 1093,
      "2900": 1094,
      "227a": 1095,
      "4845": 1096,
      "004c": 1097,
      "482e": 1098,
      "300d": 1099,
      "##9cd": 1100,
      "##ddd": 1101,
      "d800": 1102,
      "##0b": 1103,
      "834": 1104,
      "1f00": 1105,
      "7f23": 1106,
      "5100": 1107,
      "0052": 1108,
      "fc00": 1109,
      "0110": 1110,
      "23b3": 1111,
      "f130": 1112,
      "e875": 1113,
      "c548": 1114,
      "00d0": 1115,
      "1760": 1116,
      "17c5": 1117,
      "2b9c": 1118,
      "607a": 1119,
      "7aef": 1120,
      "060b": 1121,
      "6430": 1122,
      "dad1": 1123,
      "7577": 1124,
      "c3b5": 1125,
      "f9e4": 1126,
      "61e8": 1127,
      "b973": 1128,
      "903": 1129,
      "a19": 1130,
      "5e17": 1131,
      "##0ce": 1132,
      "21c": 1133,
      "334a": 1134,
      "a983": 1135,
      "4643": 1136,
      "##a90": 1137,
      "1c97": 1138,
      "##eb9": 1139,
      "a02a": 1140,
      "0048": 1141,
      "0f5c": 1142,
      "7699": 1143,
      "d925": 1144,
      "2a83": 1145,
      "a87b": 1146,
      "dc7d": 1147,
      "a04b": 1148,
      "dcca": 1149,
      "7bd7": 1150,
      "31fb": 1151,
      "d85e": 1152,
      "1204": 1153,
      "d11c": 1154,
      "204": 1155,
      "9400": 1156,
      "a1f8": 1157,
      "d7ca": 1158,
      "d8a0": 1159,
      "0434": 1160,
      "e85b": 1161,
      "111": 1162,
      "0801": 1163,
      "50cc": 1164,
      "3e52": 1165,
      "a747": 1166,
      "d8e8": 1167,
      "837d": 1168,
      "1a6d": 1169,
      "5e43": 1170,
      "c5c6": 1171,
      "0fb8": 1172,
      "1bec": 1173,
      "35e2": 1174,
      "7d3e": 1175,
      "e732": 1176,
      "f0e6": 1177,
      "fabc": 1178,
      "9d83": 1179,
      "72e2": 1180,
      "d815": 1181,
      "6ef6": 1182,
      "156b": 1183,
      "909b": 1184,
      "e63e": 1185,
      "f1d": 1186,
      "622f": 1187,
      "cf5c": 1188,
      "d8b3": 1189,
      "325b": 1190,
      "3776": 1191,
      "e8d": 1192,
      "e2a7": 1193,
      "06c9": 1194,
      "f86e": 1195,
      "4345": 1196,
      "cac8": 1197,
      "c8c9": 1198,
      "fbc3": 1199,
      "d858": 1200,
      "df1f": 1201,
      "7edf": 1202,
      "5224": 1203,
      "f03": 1204,
      "6dfc": 1205,
      "05a8": 1206,
      "fcbc": 1207,
      "4019": 1208,
      "9af0": 1209,
      "94e1": 1210,
      "db3f": 1211,
      "76db": 1212,
      "2300": 1213,
      "d813": 1214,
      "d920": 1215,
      "##a09": 1216,
      "1328": 1217,
      "b552": 1218,
      "7931": 1219,
      "e61b": 1220,
      "1e48": 1221,
      "aa8b": 1222,
      "d88f": 1223,
      "687b": 1224,
      "b8ec": 1225,
      "92c5": 1226,
      "f28e": 1227,
      "0c00": 1228,
      "##62f": 1229,
      "b353": 1230,
      "5c1b": 1231,
      "2562": 1232,
      "d912": 1233,
      "b874": 1234,
      "2004": 1235,
      "194f": 1236,
      "bb00": 1237,
      "d8e6": 1238,
      "fb94": 1239,
      "f7a9": 1240,
      "58db": 1241,
      "667e": 1242,
      "9947": 1243,
      "d814": 1244,
      "83bf": 1245,
      "ec1e": 1246,
      "d8aa": 1247,
      "##e25": 1248,
      "5c35": 1249,
      "47d8": 1250,
      "4e84": 1251,
      "52d4": 1252,
      "1b8c": 1253,
      "a9f2": 1254,
      "1483": 1255,
      "e2ec": 1256,
      "3533": 1257,
      "bf92": 1258,
      "1257": 1259,
      "4f2b": 1260,
      "0dec": 1261,
      "8d19": 1262,
      "8412": 1263,
      "2594": 1264,
      "aa84": 1265,
      "d8e5": 1266,
      "80bb": 1267,
      "1bb8": 1268,
      "##943": 1269,
      "e5e3": 1270,
      "246c": 1271,
      "7418": 1272,
      "325d": 1273,
      "9a5d": 1274,
      "ce0f": 1275,
      "d81b": 1276,
      "d88e": 1277,
      "63f8": 1278,
      "85c6": 1279,
      "5989": 1280,
      "8ecc": 1281,
      "e01": 1282,
      "06e5": 1283,
      "2754": 1284,
      "2bf0": 1285,
      "853c": 1286,
      "5d92": 1287,
      "952b": 1288,
      "001f": 1289,
      "0f0c": 1290,
      "e7d6": 1291,
      "f94c": 1292,
      "0afb": 1293,
      "d941": 1294,
      "##649": 1295,
      "249c": 1296,
      "f01b": 1297,
      "b6ae": 1298,
      "d8f0": 1299,
      "d927": 1300,
      "12ba": 1301,
      "2060": 1302,
      "b6af": 1303,
      "26bc": 1304,
      "af32": 1305,
      "dd96": 1306,
      "8063": 1307,
      "9f6b": 1308,
      "2ef3": 1309,
      "2644": 1310,
      "07ea": 1311,
      "6b05": 1312,
      "f807": 1313,
      "0c75": 1314,
      "eda9": 1315,
      "e0ef": 1316,
      "d8ed": 1317,
      "edb3": 1318,
      "f08c": 1319,
      "4850": 1320,
      "6ee0": 1321,
      "3d4": 1322,
      "ae9f": 1323,
      "1516": 1324,
      "9fe7": 1325,
      "96b": 1326,
      "c2ea": 1327,
      "eae6": 1328,
      "9615": 1329,
      "c39b": 1330,
      "ac15": 1331,
      "2201": 1332,
      "dc26": 1333,
      "6533": 1334,
      "908b": 1335,
      "9e85": 1336,
      "7476": 1337,
      "9a6e": 1338,
      "8f0c": 1339,
      "e36e": 1340,
      "89c3": 1341,
      "8c6c": 1342,
      "37e1": 1343,
      "c6f8": 1344,
      "46b4": 1345,
      "a0de": 1346,
      "1976": 1347,
      "1cac": 1348,
      "f3c2": 1349,
      "160e": 1350,
      "6e8b": 1351,
      "2646": 1352,
      "3f00": 1353,
      "7685": 1354,
      "bb9a": 1355,
      "d820": 1356,
      "310c": 1357,
      "d862": 1358,
      "e7dd": 1359,
      "26fc": 1360,
      "883b": 1361,
      "a8d": 1362,
      "c6a0": 1363,
      "8d85": 1364,
      "62c3": 1365,
      "9a2e": 1366,
      "8dce": 1367,
      "78d3": 1368,
      "d81c": 1369,
      "##ec4": 1370,
      "2e12": 1371,
      "d007": 1372,
      "ad1d": 1373,
      "6b1b": 1374,
      "4606": 1375,
      "c825": 1376,
      "6c38": 1377,
      "5998": 1378,
      "13d0": 1379,
      "2ba4": 1380,
      "de1d": 1381,
      "6d63": 1382,
      "5d13": 1383,
      "e778": 1384,
      "6deb": 1385,
      "839b": 1386,
      "386b": 1387,
      "90f3": 1388,
      "##205": 1389,
      "fcad": 1390,
      "768d": 1391,
      "480": 1392,
      "d883": 1393,
      "d300": 1394,
      "685b": 1395,
      "884f": 1396,
      "25d7": 1397,
      "4e44": 1398,
      "29c1": 1399,
      "7700": 1400,
      "5629": 1401,
      "96c8": 1402,
      "d8cc": 1403,
      "3674": 1404,
      "8095": 1405,
      "1f68": 1406,
      "4898": 1407,
      "444b": 1408,
      "4124": 1409,
      "4a00": 1410,
      "cc13": 1411,
      "4f7b": 1412,
      "b883": 1413,
      "d85d": 1414,
      "74fc": 1415,
      "9880": 1416,
      "88e4": 1417,
      "d60c": 1418,
      "d8b8": 1419,
      "6858": 1420,
      "cf23": 1421,
      "7b3e": 1422,
      "1700": 1423,
      "5456": 1424,
      "cee7": 1425,
      "8d44": 1426,
      "b500": 1427,
      "4800": 1428,
      "6b00": 1429,
      "9b4": 1430,
      "2af4": 1431,
      "a800": 1432,
      "d2c": 1433,
      "4bdd": 1434,
      "588d": 1435,
      "0047": 1436,
      "d8f2": 1437,
      "2944": 1438,
      "4700": 1439,
      "7400": 1440,
      "b170": 1441,
      "d92a": 1442,
      "44bc": 1443,
      "70f2": 1444,
      "26d": 1445,
      "6f33": 1446,
      "f28c": 1447,
      "bc38": 1448,
      "d8cf": 1449,
      "14eb": 1450,
      "654": 1451,
      "43ad": 1452,
      "f400": 1453,
      "3dfb": 1454,
      "faec": 1455,
      "5900": 1456,
      "8b00": 1457,
      "ac00": 1458,
      "ca00": 1459,
      "2400": 1460,
      "a900": 1461,
      "7d50": 1462,
      "bc00": 1463,
      "##0dd": 1464,
      "853d": 1465,
      "d808": 1466,
      "d700": 1467,
      "fb22": 1468,
      "4cc4": 1469,
      "6100": 1470,
      "6002": 1471,
      "3800": 1472,
      "9600": 1473,
      "110": 1474,
      "##831": 1475,
      "8915": 1476,
      "9200": 1477,
      "c400": 1478,
      "de89": 1479,
      "b300": 1480,
      "c900": 1481,
      "9700": 1482,
      "9300": 1483,
      "9500": 1484,
      "0120": 1485,
      "c016": 1486,
      "a100": 1487,
      "8100": 1488,
      "6e00": 1489,
      "0500": 1490,
      "1050": 1491,
      "6900": 1492,
      "730a": 1493,
      "a600": 1494,
      "##b0b": 1495,
      "##e3d": 1496,
      "1750": 1497,
      "5600": 1498,
      "b100": 1499,
      "e900": 1500,
      "4de9": 1501,
      "4dbc": 1502,
      "06e4": 1503,
      "002c": 1504,
      "fe00": 1505,
      "0700": 1506,
      "1ab1": 1507,
      "e300": 1508,
      "7c03": 1509,
      "b043": 1510,
      "adc6": 1511,
      "6d00": 1512,
      "3cb8": 1513,
      "4d04": 1514,
      "d940": 1515,
      "b81a": 1516,
      "bc4d": 1517,
      "7750": 1518,
      "0150": 1519,
      "572b": 1520,
      "2b42": 1521,
      "##76e": 1522,
      "c7c0": 1523,
      "5bc0": 1524,
      "0d3": 1525,
      "c67c": 1526,
      "c100": 1527,
      "dc00": 1528,
      "b93b": 1529,
      "d84d": 1530,
      "6f1b": 1531,
      "0f36": 1532,
      "1e00": 1533,
      "f200": 1534,
      "f300": 1535,
      "0623": 1536,
      "7c93": 1537,
      "##59a": 1538,
      "42e7": 1539,
      "0c29": 1540,
      "7600": 1541,
      "0011": 1542,
      "b800": 1543,
      "6001": 1544,
      "223": 1545,
      "7900": 1546,
      "9d00": 1547,
      "ea00": 1548,
      "2b00": 1549,
      "f900": 1550,
      "0073": 1551,
      "4545": 1552,
      "d40a": 1553,
      "c014": 1554,
      "9cc0": 1555,
      "0078": 1556,
      "d929": 1557,
      "3350": 1558,
      "4542": 1559,
      "dd31": 1560,
      "3100": 1561,
      "a400": 1562,
      "d810": 1563,
      "349b": 1564,
      "1c00": 1565,
      "3a19": 1566,
      "c800": 1567,
      "bc50": 1568,
      "1800": 1569,
      "ca50": 1570,
      "2c00": 1571,
      "##ce": 1572,
      "##745": 1573,
      "00a6": 1574,
      "ba90": 1575,
      "##008": 1576,
      "9030": 1577,
      "c550": 1578,
      "68fb": 1579,
      "##a02": 1580,
      "30ce": 1581,
      "001a": 1582,
      "##f31": 1583,
      "dd00": 1584,
      "00d5": 1585,
      "8d50": 1586,
      "29bc": 1587,
      "5d50": 1588,
      "ad50": 1589,
      "4ddd": 1590,
      "0612": 1591,
      "834d": 1592,
      "060e": 1593,
      "1d50": 1594,
      "0070": 1595,
      "06a6": 1596,
      "b350": 1597,
      "0ed": 1598,
      "3200": 1599,
      "9750": 1600,
      "a923": 1601,
      "9550": 1602,
      "3600": 1603,
      "230c": 1604,
      "11bc": 1605,
      "0750": 1606,
      "681a": 1607,
      "0611": 1608,
      "0624": 1609,
      "07b": 1610,
      "00a1": 1611,
      "d900": 1612,
      "4a50": 1613,
      "0bb": 1614,
      "aa00": 1615,
      "##50a": 1616,
      "1e50": 1617,
      "222": 1618,
      "5a00": 1619,
      "0101": 1620,
      "d88d": 1621,
      "08fb": 1622,
      "d911": 1623,
      "8ce2": 1624,
      "9b40": 1625,
      "8550": 1626,
      "9b50": 1627,
      "8d0c": 1628,
      "e261": 1629,
      "07d": 1630,
      "0019": 1631,
      "6f48": 1632,
      "06a5": 1633,
      "6116": 1634,
      "9c50": 1635,
      "4750": 1636,
      "0e50": 1637,
      "203": 1638,
      "df00": 1639,
      "dd50": 1640,
      "8b50": 1641,
      "0103": 1642,
      "##19a": 1643,
      "a850": 1644,
      "0957": 1645,
      "4876": 1646,
      "a2ad": 1647,
      "e650": 1648,
      "2916": 1649,
      "4e6f": 1650,
      "8f29": 1651,
      "2b50": 1652,
      "b06b": 1653,
      "0cf7": 1654,
      "0b3": 1655,
      "db0a": 1656,
      "d000": 1657,
      "adbb": 1658,
      "ad35": 1659,
      "##d9a": 1660,
      "cb00": 1661,
      "1a84": 1662,
      "162f": 1663,
      "f350": 1664,
      "0018": 1665,
      "bbc8": 1666,
      "3f50": 1667,
      "##c8": 1668,
      "d81a": 1669,
      "1850": 1670,
      "9250": 1671,
      "1a00": 1672,
      "f650": 1673,
      "b450": 1674,
      "11c": 1675,
      "7000": 1676,
      "8e50": 1677,
      "9850": 1678,
      "e30a": 1679,
      "4650": 1680,
      "530a": 1681,
      "ccc0": 1682,
      "3c50": 1683,
      "d750": 1684,
      "f30a": 1685,
      "e8d8": 1686,
      "09c": 1687,
      "d891": 1688,
      "c480": 1689,
      "280a": 1690,
      "0914": 1691,
      "0576": 1692,
      "940a": 1693,
      "a40a": 1694,
      "d30a": 1695,
      "##cb": 1696,
      "23c5": 1697,
      "a279": 1698,
      "9193": 1699,
      "5000": 1700,
      "6ec4": 1701,
      "f40a": 1702,
      "c5e8": 1703,
      "5e7": 1704,
      "d869": 1705,
      "cd13": 1706,
      "694b": 1707,
      "ab0b": 1708,
      "##106": 1709,
      "7603": 1710,
      "d8ab": 1711,
      "16ad": 1712,
      "aeba": 1713,
      "5416": 1714,
      "0565": 1715,
      "3850": 1716,
      "6a9c": 1717,
      "cb65": 1718,
      "6d79": 1719,
      "079": 1720,
      "060a": 1721,
      "0688": 1722,
      "d8cd": 1723,
      "9cf3": 1724,
      "3900": 1725,
      "e721": 1726,
      "fc0a": 1727,
      "f850": 1728,
      "e018": 1729,
      "d650": 1730,
      "##ca": 1731,
      "00bf": 1732,
      "eb0a": 1733,
      "129b": 1734,
      "f3bf": 1735,
      "540a": 1736,
      "796d": 1737,
      "d2cb": 1738,
      "7649": 1739,
      "d8e0": 1740,
      "d904": 1741,
      "6589": 1742,
      "600a": 1743,
      "82a3": 1744,
      "4c0a": 1745,
      "7a6b": 1746,
      "c612": 1747,
      "d882": 1748,
      "21c3": 1749,
      "c40a": 1750,
      "06a2": 1751,
      "49bb": 1752,
      "5300": 1753,
      "3557": 1754,
      "001b": 1755,
      "7daa": 1756,
      "6bae": 1757,
      "e71f": 1758,
      "630a": 1759,
      "9b4e": 1760,
      "ac0a": 1761,
      "f250": 1762,
      "0c0": 1763,
      "f55c": 1764,
      "06a7": 1765,
      "d4f6": 1766,
      "653e": 1767,
      "601": 1768,
      "f700": 1769,
      "00e9": 1770,
      "d8a3": 1771,
      "4bc0": 1772,
      "a200": 1773,
      "ea50": 1774,
      "e205": 1775,
      "bbdc": 1776,
      "d909": 1777,
      "4854": 1778,
      "a3b3": 1779,
      "f6e7": 1780,
      "a943": 1781,
      "0622": 1782,
      "a5a8": 1783,
      "4b11": 1784,
      "96b8": 1785,
      "d8f5": 1786,
      "aa20": 1787,
      "44c0": 1788,
      "3d49": 1789,
      "494b": 1790,
      "0072": 1791,
      "6c9c": 1792,
      "9c96": 1793,
      "04c0": 1794,
      "83c0": 1795,
      "0c08": 1796,
      "576e": 1797,
      "b9cd": 1798,
      "409c": 1799,
      "a8d9": 1800,
      "d8a1": 1801,
      "d88a": 1802,
      "c850": 1803,
      "504": 1804,
      "b17d": 1805,
      "7300": 1806,
      "8aab": 1807,
      "6e25": 1808,
      "480c": 1809,
      "4c19": 1810,
      "48c": 1811,
      "f759": 1812,
      "a5a5": 1813,
      "c200": 1814,
      "0074": 1815,
      "a700": 1816,
      "196b": 1817,
      "06c7": 1818,
      "5450": 1819,
      "800b": 1820,
      "0621": 1821,
      "a000": 1822,
      "067e": 1823,
      "a16b": 1824,
      "4100": 1825,
      "9eb9": 1826,
      "d880": 1827,
      "c000": 1828,
      "8cc0": 1829,
      "4b00": 1830,
      "8600": 1831,
      "bd00": 1832,
      "cd8a": 1833,
      "06ce": 1834,
      "ab00": 1835,
      "0032": 1836,
      "0202": 1837,
      "3550": 1838,
      "ff3c": 1839,
      "6600": 1840,
      "d0dd": 1841,
      "6700": 1842,
      "6300": 1843,
      "6f4b": 1844,
      "2e00": 1845,
      "##1dc": 1846,
      "c0f1": 1847,
      "5f00": 1848,
      "7a00": 1849,
      "##99a": 1850,
      "6a00": 1851,
      "5800": 1852,
      "b200": 1853,
      "8300": 1854,
      "0bc": 1855,
      "3a00": 1856,
      "6f00": 1857,
      "7e00": 1858,
      "9350": 1859,
      "9100": 1860,
      "a300": 1861,
      "b000": 1862,
      "d8a8": 1863,
      "8700": 1864,
      "00ec": 1865,
      "7200": 1866,
      "0628": 1867,
      "0cc0": 1868,
      "101": 1869,
      "a85b": 1870,
      "1300": 1871,
      "e400": 1872,
      "0071": 1873,
      "8200": 1874,
      "9a09": 1875,
      "bf18": 1876,
      "##59e": 1877,
      "26d3": 1878,
      "59e4": 1879,
      "6200": 1880,
      "b600": 1881,
      "1826": 1882,
      "654b": 1883,
      "7f00": 1884,
      "9000": 1885,
      "a500": 1886,
      "##c7": 1887,
      "d859": 1888,
      "b900": 1889,
      "fa08": 1890,
      "769a": 1891,
      "6800": 1892,
      "9f00": 1893,
      "af00": 1894,
      "##1a1": 1895,
      "7b00": 1896,
      "9900": 1897,
      "0220": 1898,
      "##503": 1899,
      "5500": 1900,
      "4f00": 1901,
      "7100": 1902,
      "010a": 1903,
      "3b00": 1904,
      "4300": 1905,
      "4200": 1906,
      "##202": 1907,
      "cf00": 1908,
      "4094": 1909,
      "a19b": 1910,
      "0a3": 1911,
      "06c4": 1912,
      "b700": 1913,
      "0298": 1914,
      "06a4": 1915,
      "8800": 1916,
      "ae00": 1917,
      "ce50": 1918,
      "0900": 1919,
      "8f00": 1920,
      "bb6c": 1921,
      "2a00": 1922,
      "4d00": 1923,
      "7800": 1924,
      "0ff": 1925,
      "0e3": 1926,
      "06a8": 1927,
      "0950": 1928,
      "3d00": 1929,
      "9a00": 1930,
      "06e3": 1931,
      "00cb": 1932,
      "1650": 1933,
      "2150": 1934,
      "06c3": 1935,
      "06e6": 1936,
      "bb8d": 1937,
      "##eb5": 1938,
      "1102": 1939,
      "c700": 1940,
      "c300": 1941,
      "##5dc": 1942,
      "f1d0": 1943,
      "da00": 1944,
      "f500": 1945,
      "2100": 1946,
      "4900": 1947,
      "11ff": 1948,
      "0303": 1949,
      "5454": 1950,
      "6500": 1951,
      "18fa": 1952,
      "3700": 1953,
      "e800": 1954,
      "7500": 1955,
      "ed3": 1956,
      "de00": 1957,
      "00ad": 1958,
      "06aa": 1959,
      "0e4": 1960,
      "9150": 1961,
      "06a1": 1962,
      "3000": 1963,
      "007b": 1964,
      "093": 1965,
      "a150": 1966,
      "f100": 1967,
      "8050": 1968,
      "ed00": 1969,
      "500a": 1970,
      "e200": 1971,
      "0f3": 1972,
      "bb50": 1973,
      "06cd": 1974,
      "d150": 1975,
      "5150": 1976,
      "d100": 1977,
      "fa00": 1978,
      "0683": 1979,
      "0c3": 1980,
      "0ec": 1981,
      "4150": 1982,
      "d400": 1983,
      "db00": 1984,
      "##295": 1985,
      "089": 1986,
      "f000": 1987,
      "067d": 1988,
      "d500": 1989,
      "cc00": 1990,
      "e4c0": 1991,
      "006a": 1992,
      "13c0": 1993,
      "2d00": 1994,
      "5b00": 1995,
      "06ca": 1996,
      "00b7": 1997,
      "0e9": 1998,
      "6bc0": 1999,
      "d200": 2000,
      "7650": 2001,
      "fd00": 2002,
      "00f7": 2003,
      "6d6c": 2004,
      "43c0": 2005,
      "3950": 2006,
      "2050": 2007,
      "08d": 2008,
      "140a": 2009,
      "4e50": 2010,
      "103": 2011,
      "##eee": 2012,
      "##19e": 2013,
      "##15e": 2014,
      "d350": 2015,
      "##a03": 2016,
      "##536": 2017,
      "00d1": 2018,
      "930a": 2019,
      "6003": 2020,
      "2f50": 2021,
      "502f": 2022,
      "0301": 2023,
      "4950": 2024,
      "fc08": 2025,
      "0687": 2026,
      "080": 2027,
      "074": 2028,
      "1950": 2029,
      "f950": 2030,
      "00bb": 2031,
      "##50b": 2032,
      "b850": 2033,
      "7150": 2034,
      "0613": 2035,
      "9950": 2036,
      "0617": 2037,
      "b950": 2038,
      "f150": 2039,
      "2700": 2040,
      "##e02": 2041,
      "1d0a": 2042,
      "6150": 2043,
      "1900": 2044,
      "0e8": 2045,
      "6572": 2046,
      "4554": 2047,
      "2e31": 2048,
      "48d": 2049,
      "00a4": 2050,
      "05d": 2051,
      "00e5": 2052,
      "180a": 2053,
      "2f31": 2054,
      "ab0a": 2055,
      "0017": 2056,
      "3022": 2057,
      "a30a": 2058,
      "00ae": 2059,
      "111f": 2060,
      "052": 2061,
      "bf50": 2062,
      "0fef": 2063,
      "0ea": 2064,
      "8a50": 2065,
      "2065": 2066,
      "0608": 2067,
      "3d22": 2068,
      "060f": 2069,
      "2231": 2070,
      "0638": 2071,
      "0e5": 2072,
      "0016": 2073,
      "5420": 2074,
      "007a": 2075,
      "08c": 2076,
      "6f6e": 2077,
      "7665": 2078,
      "9802": 2079,
      "06c2": 2080,
      "0606": 2081,
      "786d": 2082,
      "6e3d": 2083,
      "4641": 2084,
      "4145": 2085,
      "7fff": 2086,
      "061d": 2087,
      "12ff": 2088,
      "6f70": 2089,
      "4245": 2090,
      "efff": 2091,
      "8002": 2092,
      "4846": 2093,
      "2220": 2094,
      "00e3": 2095,
      "##58a": 2096,
      "2076": 2097,
      "3f78": 2098,
      "00ee": 2099,
      "6c20": 2100,
      "00ea": 2101,
      "9450": 2102,
      "06a3": 2103,
      "7369": 2104,
      "6012": 2105,
      "4745": 2106,
      "00a3": 2107,
      "06a9": 2108,
      "202f": 2109,
      "696f": 2110,
      "6164": 2111,
      "4543": 2112,
      "5e7f": 2113,
      "7273": 2114,
      "06cc": 2115,
      "3120": 2116,
      "2e30": 2117,
      "0682": 2118,
      "05c": 2119,
      "ff34": 2120,
      "003c": 2121,
      "0629": 2122,
      "10f8": 2123,
      "07a": 2124,
      "00df": 2125,
      "083": 2126,
      "0616": 2127,
      "##1ce": 2128,
      "##93c": 2129,
      "00ac": 2130,
      "00af": 2131,
      "bb72": 2132,
      "0e2": 2133,
      "0689": 2134,
      "7bc0": 2135,
      "0620": 2136,
      "##135": 2137,
      "##172": 2138,
      "9801": 2139,
      "##151": 2140,
      "073": 2141,
      "00b8": 2142,
      "2910": 2143,
      "##7fe": 2144,
      "0625": 2145,
      "00b1": 2146,
      "##535": 2147,
      "067f": 2148,
      "0fac": 2149,
      "00b9": 2150,
      "##506": 2151,
      "06a0": 2152,
      "##9b6": 2153,
      "##1b6": 2154,
      "##103": 2155,
      "f00": 2156,
      "00fb": 2157,
      "00d7": 2158,
      "1c11": 2159,
      "a634": 2160,
      "07c": 2161,
      "00f6": 2162,
      "##584": 2163,
      "00e2": 2164,
      "00ca": 2165,
      "##935": 2166,
      "6b17": 2167,
      "075": 2168,
      "00d3": 2169,
      "1601": 2170,
      "00da": 2171,
      "078": 2172,
      "4a4": 2173,
      "00cd": 2174,
      "b034": 2175,
      "00ce": 2176,
      "054": 2177,
      "##c02": 2178,
      "##1f1": 2179,
      "00ef": 2180,
      "6cc0": 2181,
      "00c3": 2182,
      "1d9": 2183,
      "061f": 2184,
      "bb22": 2185,
      "00f3": 2186,
      "00b6": 2187,
      "00f5": 2188,
      "064b": 2189,
      "00e4": 2190,
      "00a2": 2191,
      "00c1": 2192,
      "00d9": 2193,
      "6973": 2194,
      "##60b": 2195,
      "f065": 2196,
      "06e0": 2197,
      "##136": 2198,
      "00a7": 2199,
      "00be": 2200,
      "002f": 2201,
      "##e05": 2202,
      "8180": 2203,
      "00f1": 2204,
      "059": 2205,
      "0015": 2206,
      "1e9": 2207,
      "7831": 2208,
      "0fe0": 2209,
      "##a5e": 2210,
      "00bd": 2211,
      "##11a": 2212,
      "0a50": 2213,
      "f0d1": 2214,
      "00d8": 2215,
      "4011": 2216,
      "00a8": 2217,
      "00e1": 2218,
      "23c0": 2219,
      "0610": 2220,
      "00ff": 2221,
      "061e": 2222,
      "##409": 2223,
      "00d2": 2224,
      "00cf": 2225,
      "700": 2226,
      "00f0": 2227,
      "f067": 2228,
      "06cb": 2229,
      "02bc": 2230,
      "##c03": 2231,
      "bb03": 2232,
      "00dc": 2233,
      "##402": 2234,
      "2802": 2235,
      "00dd": 2236,
      "00fd": 2237,
      "##185": 2238,
      "e14": 2239,
      "0770": 2240,
      "00e7": 2241,
      "bbb6": 2242,
      "20c": 2243,
      "009a": 2244,
      "068e": 2245,
      "8bc0": 2246,
      "f0a9": 2247,
      "00f4": 2248,
      "0614": 2249,
      "##f85": 2250,
      "00db": 2251,
      "00fa": 2252,
      "24c0": 2253,
      "00f8": 2254,
      "03bc": 2255,
      "##fcd": 2256,
      "00d4": 2257,
      "0039": 2258,
      "00b3": 2259,
      "##5b6": 2260,
      "072": 2261,
      "00d6": 2262,
      "9bc0": 2263,
      "174": 2264,
      "43ff": 2265,
      "00eb": 2266,
      "006f": 2267,
      "00cc": 2268,
      "00c2": 2269,
      "3bc0": 2270,
      "00fe": 2271,
      "061c": 2272,
      "00b5": 2273,
      "0222": 2274,
      "##a3c": 2275,
      "00f9": 2276,
      "00e6": 2277,
      "00b0": 2278,
      "0134": 2279,
      "0223": 2280,
      "##b85": 2281,
      "00de": 2282,
      "00c5": 2283,
      "##179": 2284,
      "00e8": 2285,
      "063d": 2286,
      "00ed": 2287,
      "00e0": 2288,
      "0639": 2289,
      "0077": 2290,
      "00ab": 2291,
      "009d": 2292,
      "##18e": 2293,
      "33c0": 2294,
      "003f": 2295,
      "0030": 2296,
      "0021": 2297,
      "00c6": 2298,
      "##1a2": 2299,
      "1bc0": 2300,
      "171c": 2301,
      "0099": 2302,
      "##bbe": 2303,
      "00bc": 2304,
      "00f2": 2305,
      "0679": 2306,
      "##131": 2307,
      "##906": 2308,
      "00c7": 2309,
      "00ba": 2310,
      "06b0": 2311,
      "06c6": 2312,
      "00b2": 2313,
      "##946": 2314,
      "1f9": 2315,
      "8f4": 2316,
      "ecc0": 2317,
      "00c9": 2318,
      "00a0": 2319,
      "##1f4": 2320,
      "##945": 2321,
      "00a9": 2322,
      "06c1": 2323,
      "06d8": 2324,
      "1401": 2325,
      "##129": 2326,
      "822": 2327,
      "00c0": 2328,
      "00c8": 2329,
      "0678": 2330,
      "34c0": 2331,
      "##7be": 2332,
      "73c0": 2333,
      "00aa": 2334,
      "0626": 2335,
      "##4d5": 2336,
      "009e": 2337,
      "0025": 2338,
      "bb06": 2339,
      "##f8b": 2340,
      "##e75": 2341,
      "50a": 2342,
      "9f4": 2343,
      "009c": 2344,
      "0075": 2345,
      "06ae": 2346,
      "6c69": 2347,
      "3a4": 2348,
      "0686": 2349,
      "##529": 2350,
      "00c4": 2351,
      "84c0": 2352,
      "##1da": 2353,
      "##abe": 2354,
      "##985": 2355,
      "##936": 2356,
      "50d": 2357,
      "669": 2358,
      "##9c6": 2359,
      "bb35": 2360,
      "007e": 2361,
      "06af": 2362,
      "0650": 2363,
      "b01": 2364,
      "06cf": 2365,
      "0093": 2366,
      "063e": 2367,
      "bbc6": 2368,
      "##1a5": 2369,
      "0064": 2370,
      "068d": 2371,
      "##eb2": 2372,
      "20d": 2373,
      "0095": 2374,
      "06ab": 2375,
      "bb76": 2376,
      "##984": 2377,
      "5045": 2378,
      "0096": 2379,
      "009f": 2380,
      "6376": 2381,
      "0097": 2382,
      "##1f7": 2383,
      "1e5": 2384,
      "002b": 2385,
      "06d9": 2386,
      "bb54": 2387,
      "##76f": 2388,
      "##d36": 2389,
      "##d9e": 2390,
      "6965": 2391,
      "fbc0": 2392,
      "##1c6": 2393,
      "##746": 2394,
      "dd0a": 2395,
      "c3c0": 2396,
      "b3c0": 2397,
      "fae9": 2398,
      "06e9": 2399,
      "##19d": 2400,
      "7061": 2401,
      "06c5": 2402,
      "64d": 2403,
      "a60": 2404,
      "0076": 2405,
      "009b": 2406,
      "5cc0": 2407,
      "b23": 2408,
      "0618": 2409,
      "bb48": 2410,
      "0681": 2411,
      "f14": 2412,
      "##e36": 2413,
      "0234": 2414,
      "766c": 2415,
      "0094": 2416,
      "##eb1": 2417,
      "##4c5": 2418,
      "008e": 2419,
      "7602": 2420,
      "0053": 2421,
      "bba1": 2422,
      "7374": 2423,
      "##6fe": 2424,
      "508": 2425,
      "bb9e": 2426,
      "##585": 2427,
      "003e": 2428,
      "06d5": 2429,
      "1a03": 2430,
      "4295": 2431,
      "0056": 2432,
      "0082": 2433,
      "0477": 2434,
      "##166": 2435,
      "7368": 2436,
      "050": 2437,
      "bb40": 2438,
      "##539": 2439,
      "##99e": 2440,
      "1eed": 2441,
      "0069": 2442,
      "068f": 2443,
      "0092": 2444,
      "004d": 2445,
      "##5ce": 2446,
      "36ec": 2447,
      "6361": 2448,
      "2041": 2449,
      "##188": 2450,
      "0043": 2451,
      "##125": 2452,
      "ff40": 2453,
      "208": 2454,
      "006d": 2455,
      "0065": 2456,
      "0055": 2457,
      "0085": 2458,
      "062a": 2459,
      "1e11": 2460,
      "008d": 2461,
      "007d": 2462,
      "007f": 2463,
      "0640": 2464,
      "e511": 2465,
      "0079": 2466,
      "e5ff": 2467,
      "f0b0": 2468,
      "##1b1": 2469,
      "e96a": 2470,
      "0041": 2471,
      "##5cf": 2472,
      "06df": 2473,
      "4143": 2474,
      "0024": 2475,
      "##9b1": 2476,
      "706f": 2477,
      "06d6": 2478,
      "4346": 2479,
      "4241": 2480,
      "0059": 2481,
      "6173": 2482,
      "7770": 2483,
      "03f9": 2484,
      "063c": 2485,
      "7063": 2486,
      "4142": 2487,
      "59c": 2488,
      "fad": 2489,
      "06d4": 2490,
      "11b8": 2491,
      "ed3a": 2492,
      "##595": 2493,
      "0636": 2494,
      "006e": 2495,
      "f093": 2496,
      "##948": 2497,
      "0083": 2498,
      "008f": 2499,
      "004a": 2500,
      "003d": 2501,
      "f50b": 2502,
      "0090": 2503,
      "0051": 2504,
      "2034": 2505,
      "0088": 2506,
      "bba2": 2507,
      "##705": 2508,
      "0062": 2509,
      "008c": 2510,
      "##1a0": 2511,
      "##a4c": 2512,
      "ffd1": 2513,
      "0068": 2514,
      "0091": 2515,
      "0680": 2516,
      "##d95": 2517,
      "0049": 2518,
      "06e1": 2519,
      "064a": 2520,
      "##1f3": 2521,
      "##b33": 2522,
      "##1aa": 2523,
      "062e": 2524,
      "ff72": 2525,
      "##137": 2526,
      "##59d": 2527,
      "##e03": 2528,
      "483": 2529,
      "2202": 2530,
      "3401": 2531,
      "0061": 2532,
      "005d": 2533,
      "0067": 2534,
      "004b": 2535,
      "##105": 2536,
      "06f2": 2537,
      "##5b1": 2538,
      "##195": 2539,
      "0063": 2540,
      "ff45": 2541,
      "0d34": 2542,
      "0bc0": 2543,
      "0038": 2544,
      "##1d6": 2545,
      "##d9d": 2546,
      "0033": 2547,
      "06e2": 2548,
      "5c11": 2549,
      "ff29": 2550,
      "f0cd": 2551,
      "##531": 2552,
      "003b": 2553,
      "1dc0": 2554,
      "##dcf": 2555,
      "005f": 2556,
      "ff6a": 2557,
      "0058": 2558,
      "004f": 2559,
      "0029": 2560,
      "##525": 2561,
      "f050": 2562,
      "##148": 2563,
      "##995": 2564,
      "##73d": 2565,
      "##157": 2566,
      "##cc5": 2567,
      "503": 2568,
      "##a36": 2569,
      "ff36": 2570,
      "1e7": 2571,
      "f60b": 2572,
      "##33d": 2573,
      "005a": 2574,
      "0022": 2575,
      "06f1": 2576,
      "##65e": 2577,
      "##b9d": 2578,
      "0031": 2579,
      "##c0c": 2580,
      "0634": 2581,
      "ff6c": 2582,
      "ff61": 2583,
      "##104": 2584,
      "##736": 2585,
      "##d46": 2586,
      "0042": 2587,
      "1a02": 2588,
      "005b": 2589,
      "##a16": 2590,
      "006c": 2591,
      "067a": 2592,
      "0ef": 2593,
      "a64": 2594,
      "faf": 2595,
      "ff54": 2596,
      "##f3d": 2597,
      "0869": 2598,
      "##99d": 2599,
      "063f": 2600,
      "0087": 2601,
      "ff1f": 2602,
      "006b": 2603,
      "0057": 2604,
      "008b": 2605,
      "0108": 2606,
      "06d3": 2607,
      "ff79": 2608,
      "##59f": 2609,
      "##54d": 2610,
      "ff24": 2611,
      "##d3c": 2612,
      "076": 2613,
      "ff7b": 2614,
      "ffd3": 2615,
      "ff9d": 2616,
      "4c45": 2617,
      "ea4": 2618,
      "002d": 2619,
      "fff5": 2620,
      "##d9f": 2621,
      "##dda": 2622,
      "f06c": 2623,
      "##18f": 2624,
      "ec42": 2625,
      "0066": 2626,
      "06ea": 2627,
      "ff9c": 2628,
      "ff64": 2629,
      "ff89": 2630,
      "##596": 2631,
      "##436": 2632,
      "f03a": 2633,
      "35d": 2634,
      "ffa1": 2635,
      "ff66": 2636,
      "##58f": 2637,
      "0086": 2638,
      "ffb5": 2639,
      "ffae": 2640,
      "ff8f": 2641,
      "ff7e": 2642,
      "f08d": 2643,
      "363": 2644,
      "ffeb": 2645,
      "ffaa": 2646,
      "ffb2": 2647,
      "##ec1": 2648,
      "ffcf": 2649,
      "0054": 2650,
      "002e": 2651,
      "ff52": 2652,
      "##6c9": 2653,
      "##13c": 2654,
      "##dd6": 2655,
      "2f4": 2656,
      "b5d": 2657,
      "0084": 2658,
      "fffe": 2659,
      "ffbf": 2660,
      "##ece": 2661,
      "0664": 2662,
      "ff99": 2663,
      "##905": 2664,
      "0037": 2665,
      "ff3d": 2666,
      "454c": 2667,
      "0046": 2668,
      "ff23": 2669,
      "ffe9": 2670,
      "ff44": 2671,
      "ffcb": 2672,
      "ffc6": 2673,
      "ffbd": 2674,
      "##181": 2675,
      "0036": 2676,
      "ff63": 2677,
      "ffd9": 2678,
      "ff25": 2679,
      "ff41": 2680,
      "ff48": 2681,
      "##e81": 2682,
      "60c": 2683,
      "ff50": 2684,
      "ff1c": 2685,
      "ffa7": 2686,
      "f0fa": 2687,
      "f04e": 2688,
      "##a31": 2689,
      "f08f": 2690,
      "fff7": 2691,
      "fffc": 2692,
      "##771": 2693,
      "ffd5": 2694,
      "##504": 2695,
      "ff98": 2696,
      "##196": 2697,
      "##6e1": 2698,
      "ffaf": 2699,
      "ff6b": 2700,
      "ff94": 2701,
      "ff7d": 2702,
      "ffe0": 2703,
      "ff18": 2704,
      "ff62": 2705,
      "ff43": 2706,
      "f061": 2707,
      "##dce": 2708,
      "ffd6": 2709,
      "ff75": 2710,
      "ff77": 2711,
      "ff71": 2712,
      "ff4a": 2713,
      "ff05": 2714,
      "fff3": 2715,
      "ffec": 2716,
      "0605": 2717,
      "d519": 2718,
      "##505": 2719,
      "0665": 2720,
      "ffb3": 2721,
      "ff59": 2722,
      "ff9b": 2723,
      "ff8e": 2724,
      "f0c9": 2725,
      "##94e": 2726,
      "##ec9": 2727,
      "ff12": 2728,
      "ffcc": 2729,
      "##937": 2730,
      "002a": 2731,
      "ffe8": 2732,
      "ff76": 2733,
      "ff69": 2734,
      "##b3d": 2735,
      "ff3e": 2736,
      "ffcd": 2737,
      "ffca": 2738,
      "0140": 2739,
      "068a": 2740,
      "0651": 2741,
      "0627": 2742,
      "ffa3": 2743,
      "ffa2": 2744,
      "ff96": 2745,
      "ffb6": 2746,
      "##aba": 2747,
      "06d2": 2748,
      "0615": 2749,
      "ffef": 2750,
      "ff78": 2751,
      "ffb1": 2752,
      "053": 2753,
      "0023": 2754,
      "ffa9": 2755,
      "ff13": 2756,
      "ff5d": 2757,
      "ff27": 2758,
      "ffc5": 2759,
      "0645": 2760,
      "10c6": 2761,
      "ff4d": 2762,
      "ffdd": 2763,
      "ff49": 2764,
      "##1d2": 2765,
      "##eb7": 2766,
      "##d37": 2767,
      "ff31": 2768,
      "ffd2": 2769,
      "ff60": 2770,
      "ff11": 2771,
      "ffad": 2772,
      "ff20": 2773,
      "ffb0": 2774,
      "ff91": 2775,
      "ffb7": 2776,
      "##1b9": 2777,
      "##588": 2778,
      "ff30": 2779,
      "ffc2": 2780,
      "f411": 2781,
      "1d4": 2782,
      "##54e": 2783,
      "fff8": 2784,
      "ff16": 2785,
      "##11e": 2786,
      "##621": 2787,
      "0643": 2788,
      "ffea": 2789,
      "ff9a": 2790,
      "ff09": 2791,
      "7f34": 2792,
      "##681": 2793,
      "##781": 2794,
      "##671": 2795,
      "ffce": 2796,
      "c534": 2797,
      "04d": 2798,
      "1ff": 2799,
      "ff8c": 2800,
      "ff22": 2801,
      "ff73": 2802,
      "ff86": 2803,
      "ff9e": 2804,
      "ff87": 2805,
      "ff92": 2806,
      "ff39": 2807,
      "ffc7": 2808,
      "ffc1": 2809,
      "ffa0": 2810,
      "ff58": 2811,
      "ff5e": 2812,
      "ff2d": 2813,
      "ffba": 2814,
      "##119": 2815,
      "##799": 2816,
      "##a49": 2817,
      "##581": 2818,
      "##f81": 2819,
      "7334": 2820,
      "2334": 2821,
      "ff65": 2822,
      "ff0c": 2823,
      "ff14": 2824,
      "ffe2": 2825,
      "ff95": 2826,
      "ff2f": 2827,
      "ff47": 2828,
      "##a51": 2829,
      "ffd0": 2830,
      "0e34": 2831,
      "0666": 2832,
      "ff1b": 2833,
      "ff15": 2834,
      "##dc1": 2835,
      "##a21": 2836,
      "##439": 2837,
      "4473": 2838,
      "ff38": 2839,
      "ff35": 2840,
      "06d0": 2841,
      "5334": 2842,
      "ffc0": 2843,
      "ff93": 2844,
      "ffd4": 2845,
      "##1cf": 2846,
      "6334": 2847,
      "ff3b": 2848,
      "06da": 2849,
      "##bb1": 2850,
      "ffc3": 2851,
      "ffa5": 2852,
      "ff7f": 2853,
      "ff8b": 2854,
      "ff4f": 2855,
      "043": 2856,
      "ffe3": 2857,
      "ff6e": 2858,
      "##19f": 2859,
      "##988": 2860,
      "5934": 2861,
      "ff07": 2862,
      "ffd8": 2863,
      "f0ae": 2864,
      "2134": 2865,
      "ffac": 2866,
      "ffee": 2867,
      "##5bf": 2868,
      "##651": 2869,
      "0014": 2870,
      "ff68": 2871,
      "ffb8": 2872,
      "ff5a": 2873,
      "ee34": 2874,
      "##7c1": 2875,
      "064d": 2876,
      "0691": 2877,
      "ff33": 2878,
      "ff2c": 2879,
      "ffbe": 2880,
      "ff46": 2881,
      "##11b": 2882,
      "##659": 2883,
      "4d34": 2884,
      "ffc8": 2885,
      "ffdb": 2886,
      "4608": 2887,
      "f03b": 2888,
      "fffb": 2889,
      "ffbb": 2890,
      "ff0d": 2891,
      "ffe6": 2892,
      "ff70": 2893,
      "ff8a": 2894,
      "##11f": 2895,
      "##1d4": 2896,
      "0934": 2897,
      "ffde": 2898,
      "20a": 2899,
      "ffe4": 2900,
      "ff21": 2901,
      "ff97": 2902,
      "5f34": 2903,
      "be34": 2904,
      "ff17": 2905,
      "ff67": 2906,
      "ff55": 2907,
      "3834": 2908,
      "d634": 2909,
      "1025": 2910,
      "ff10": 2911,
      "ffed": 2912,
      "ff4e": 2913,
      "##113": 2914,
      "##146": 2915,
      "ff37": 2916,
      "658a": 2917,
      "##546": 2918,
      "06ad": 2919,
      "fff4": 2920,
      "ffa8": 2921,
      "ff2e": 2922,
      "##1bf": 2923,
      "##dd2": 2924,
      "b834": 2925,
      "a8c": 2926,
      "e134": 2927,
      "##7c9": 2928,
      "ff7a": 2929,
      "ff88": 2930,
      "ff42": 2931,
      "##751": 2932,
      "##748": 2933,
      "##7a1": 2934,
      "ff3f": 2935,
      "ffdf": 2936,
      "7734": 2937,
      "ff5f": 2938,
      "##ebd": 2939,
      "ff3a": 2940,
      "4a34": 2941,
      "ce34": 2942,
      "ff0a": 2943,
      "ff04": 2944,
      "ff51": 2945,
      "0834": 2946,
      "##f09": 2947,
      "ec34": 2948,
      "8834": 2949,
      "6934": 2950,
      "ffda": 2951,
      "bb61": 2952,
      "0c34": 2953,
      "0b34": 2954,
      "##fb9": 2955,
      "f0ab": 2956,
      "0641": 2957,
      "fff1": 2958,
      "1034": 2959,
      "ff4c": 2960,
      "ff32": 2961,
      "ff0e": 2962,
      "9f34": 2963,
      "06c0": 2964,
      "06b6": 2965,
      "ffe5": 2966,
      "ffab": 2967,
      "ff2a": 2968,
      "##a81": 2969,
      "6c9e": 2970,
      "e03": 2971,
      "##348": 2972,
      "ff7c": 2973,
      "ffe1": 2974,
      "ffb9": 2975,
      "ff85": 2976,
      "##1d1": 2977,
      "##1f9": 2978,
      "3c34": 2979,
      "a334": 2980,
      "3434": 2981,
      "8a34": 2982,
      "b27c": 2983,
      "4a46": 2984,
      "5734": 2985,
      "bbf1": 2986,
      "fff6": 2987,
      "ff6f": 2988,
      "ffdc": 2989,
      "ffa6": 2990,
      "##e09": 2991,
      "cd34": 2992,
      "6a10": 2993,
      "c934": 2994,
      "4234": 2995,
      "9803": 2996,
      "ae34": 2997,
      "c234": 2998,
      "f034": 2999,
      "##6ba": 3000,
      "##291": 3001,
      "8334": 3002,
      "6134": 3003,
      "ffc4": 3004,
      "5234": 3005,
      "02ac": 3006,
      "0157": 3007,
      "018e": 3008,
      "ff01": 3009,
      "ff19": 3010,
      "ff57": 3011,
      "ff28": 3012,
      "##7d9": 3013,
      "8b08": 3014,
      "f434": 3015,
      "b634": 3016,
      "##e51": 3017,
      "ff83": 3018,
      "ff4b": 3019,
      "7d34": 3020,
      "e834": 3021,
      "ff0f": 3022,
      "cf34": 3023,
      "e734": 3024,
      "017a": 3025,
      "ff74": 3026,
      "ff1e": 3027,
      "ff26": 3028,
      "ff90": 3029,
      "##117": 3030,
      "0609": 3031,
      "ff0b": 3032,
      "9934": 3033,
      "2045": 3034,
      "2032": 3035,
      "3f34": 3036,
      "ff8d": 3037,
      "ff6d": 3038,
      "ff53": 3039,
      "##e66": 3040,
      "7934": 3041,
      "d034": 3042,
      "708": 3043,
      "b134": 3044,
      "d834": 3045,
      "bc34": 3046,
      "4645": 3047,
      "ffd7": 3048,
      "3b34": 3049,
      "aa34": 3050,
      "5134": 3051,
      "ffe7": 3052,
      "ffbc": 3053,
      "ff9f": 3054,
      "##ef1": 3055,
      "##9bf": 3056,
      "##2ba": 3057,
      "2434": 3058,
      "fa34": 3059,
      "c734": 3060,
      "8534": 3061,
      "4445": 3062,
      "0246": 3063,
      "7c34": 3064,
      "fffd": 3065,
      "ff81": 3066,
      "##f59": 3067,
      "##6c1": 3068,
      "##e39": 3069,
      "5034": 3070,
      "##709": 3071,
      "0734": 3072,
      "a534": 3073,
      "dc34": 3074,
      "ffc9": 3075,
      "ea34": 3076,
      "ba34": 3077,
      "6234": 3078,
      "8134": 3079,
      "a63": 3080,
      "0677": 3081,
      "bb34": 3082,
      "##eb0": 3083,
      "##e21": 3084,
      "0534": 3085,
      "fc34": 3086,
      "4c34": 3087,
      "2534": 3088,
      "bd34": 3089,
      "##0c5": 3090,
      "##ac1": 3091,
      "ac34": 3092,
      "c010": 3093,
      "7b34": 3094,
      "da34": 3095,
      "8f34": 3096,
      "017e": 3097,
      "064c": 3098,
      "2734": 3099,
      "ff80": 3100,
      "7434": 3101,
      "e334": 3102,
      "fb34": 3103,
      "8b34": 3104,
      "ff06": 3105,
      "454a": 3106,
      "db34": 3107,
      "4134": 3108,
      "9634": 3109,
      "c8c": 3110,
      "0270": 3111,
      "0026": 3112,
      "061b": 3113,
      "ff56": 3114,
      "036e": 3115,
      "##949": 3116,
      "##761": 3117,
      "##7b1": 3118,
      "6a34": 3119,
      "8434": 3120,
      "5834": 3121,
      "3a34": 3122,
      "ca34": 3123,
      "6734": 3124,
      "9134": 3125,
      "af34": 3126,
      "e634": 3127,
      "ff1d": 3128,
      "ffb4": 3129,
      "ff82": 3130,
      "##53c": 3131,
      "##65d": 3132,
      "1b34": 3133,
      "1d34": 3134,
      "3634": 3135,
      "9034": 3136,
      "b534": 3137,
      "a234": 3138,
      "e0d": 3139,
      "##121": 3140,
      "062d": 3141,
      "fff2": 3142,
      "9d34": 3143,
      "4934": 3144,
      "5a34": 3145,
      "4f34": 3146,
      "c9c": 3147,
      "df34": 3148,
      "e00": 3149,
      "06e7": 3150,
      "##bbd": 3151,
      "fff0": 3152,
      "##1fd": 3153,
      "##dd1": 3154,
      "5434": 3155,
      "##4c1": 3156,
      "f934": 3157,
      "c434": 3158,
      "1734": 3159,
      "4246": 3160,
      "2c03": 3161,
      "3134": 3162,
      "cd35": 3163,
      "012e": 3164,
      "e53": 3165,
      "##bc1": 3166,
      "##a5f": 3167,
      "##331": 3168,
      "##4c9": 3169,
      "2934": 3170,
      "3034": 3171,
      "9534": 3172,
      "500e": 3173,
      "1f4": 3174,
      "323": 3175,
      "f0ea": 3176,
      "##599": 3177,
      "##62d": 3178,
      "##d4e": 3179,
      "cc34": 3180,
      "11c0": 3181,
      "4644": 3182,
      "6434": 3183,
      "2234": 3184,
      "3234": 3185,
      "6f34": 3186,
      "7634": 3187,
      "8234": 3188,
      "f234": 3189,
      "##40d": 3190,
      "ff03": 3191,
      "##299": 3192,
      "##6a1": 3193,
      "##f36": 3194,
      "##70b": 3195,
      "c334": 3196,
      "6534": 3197,
      "7a34": 3198,
      "3334": 3199,
      "06db": 3200,
      "9b34": 3201,
      "7834": 3202,
      "4034": 3203,
      "1fa": 3204,
      "6e34": 3205,
      "d0a": 3206,
      "0fc0": 3207,
      "0652": 3208,
      "##349": 3209,
      "##5c1": 3210,
      "4334": 3211,
      "ed34": 3212,
      "1434": 3213,
      "11fa": 3214,
      "d234": 3215,
      "e234": 3216,
      "0f6b": 3217,
      "0644": 3218,
      "ff2b": 3219,
      "##655": 3220,
      "##6f1": 3221,
      "##e27": 3222,
      "##9b9": 3223,
      "1334": 3224,
      "9434": 3225,
      "cb34": 3226,
      "4344": 3227,
      "##ff9": 3228,
      "##af9": 3229,
      "##191": 3230,
      "##155": 3231,
      "##cc9": 3232,
      "19f4": 3233,
      "6c34": 3234,
      "ad34": 3235,
      "e434": 3236,
      "ab34": 3237,
      "01cb": 3238,
      "40a": 3239,
      "f734": 3240,
      "0123": 3241,
      "1234": 3242,
      "##521": 3243,
      "ff5b": 3244,
      "ff5c": 3245,
      "1834": 3246,
      "##e06": 3247,
      "##fc8": 3248,
      "##435": 3249,
      "##996": 3250,
      "2d34": 3251,
      "5b34": 3252,
      "2f34": 3253,
      "c89": 3254,
      "0192": 3255,
      "##bb9": 3256,
      "##571": 3257,
      "##70e": 3258,
      "8d34": 3259,
      "7034": 3260,
      "e034": 3261,
      "1634": 3262,
      "ce7": 3263,
      "c634": 3264,
      "0a34": 3265,
      "2834": 3266,
      "b334": 3267,
      "1534": 3268,
      "f534": 3269,
      "3e34": 3270,
      "7e34": 3271,
      "d5d": 3272,
      "##739": 3273,
      "##a39": 3274,
      "##336": 3275,
      "##98f": 3276,
      "dd34": 3277,
      "6b34": 3278,
      "f834": 3279,
      "4b34": 3280,
      "8dcd": 3281,
      "45d": 3282,
      "7134": 3283,
      "b734": 3284,
      "##5b9": 3285,
      "##6b1": 3286,
      "##141": 3287,
      "3d34": 3288,
      "5c34": 3289,
      "3734": 3290,
      "6034": 3291,
      "1e34": 3292,
      "2e34": 3293,
      "8634": 3294,
      "bf34": 3295,
      "f634": 3296,
      "##e59": 3297,
      "06ff": 3298,
      "##eb6": 3299,
      "##ab9": 3300,
      "1134": 3301,
      "d334": 3302,
      "163": 3303,
      "6634": 3304,
      "9234": 3305,
      "a734": 3306,
      "c134": 3307,
      "ff1a": 3308,
      "28c0": 3309,
      "##e8d": 3310,
      "f0f1": 3311,
      "##6f9": 3312,
      "##fc9": 3313,
      "##2b1": 3314,
      "2b34": 3315,
      "9334": 3316,
      "4534": 3317,
      "8934": 3318,
      "e934": 3319,
      "a434": 3320,
      "99dc": 3321,
      "5e34": 3322,
      "9e34": 3323,
      "9734": 3324,
      "0102": 3325,
      "##7cd": 3326,
      "bb9d": 3327,
      "##e41": 3328,
      "4834": 3329,
      "##f2d": 3330,
      "1c34": 3331,
      "##999": 3332,
      "9a34": 3333,
      "aed": 3334,
      "0690": 3335,
      "ff84": 3336,
      "0d15": 3337,
      "7534": 3338,
      "a934": 3339,
      "9834": 3340,
      "b934": 3341,
      "2c34": 3342,
      "eb34": 3343,
      "f0a6": 3344,
      "b234": 3345,
      "bb17": 3346,
      "d93": 3347,
      "##5c5": 3348,
      "##a35": 3349,
      "9c34": 3350,
      "3ae6": 3351,
      "d534": 3352,
      "8e34": 3353,
      "de34": 3354,
      "##203": 3355,
      "##ea1": 3356,
      "##abd": 3357,
      "65d": 3358,
      "6106": 3359,
      "a22": 3360,
      "d134": 3361,
      "01df": 3362,
      "fff9": 3363,
      "##1d5": 3364,
      "##dc9": 3365,
      "##625": 3366,
      "4434": 3367,
      "3934": 3368,
      "2a34": 3369,
      "5534": 3370,
      "5634": 3371,
      "e04": 3372,
      "ef34": 3373,
      "e534": 3374,
      "##689": 3375,
      "##735": 3376,
      "##a85": 3377,
      "##e35": 3378,
      "fd34": 3379,
      "37d": 3380,
      "7234": 3381,
      "a134": 3382,
      "fe34": 3383,
      "##a95": 3384,
      "##b36": 3385,
      "0808": 3386,
      "##fc1": 3387,
      "##43d": 3388,
      "b434": 3389,
      "bb04": 3390,
      "##941": 3391,
      "##755": 3392,
      "##ad9": 3393,
      "##7b5": 3394,
      "c834": 3395,
      "##a2d": 3396,
      "##99f": 3397,
      "ab24": 3398,
      "8734": 3399,
      "e4d": 3400,
      "ffa4": 3401,
      "##fbd": 3402,
      "1934": 3403,
      "##251": 3404,
      "##b09": 3405,
      "##b81": 3406,
      "5d34": 3407,
      "##50d": 3408,
      "##809": 3409,
      "d934": 3410,
      "##e0e": 3411,
      "##d45": 3412,
      "fa74": 3413,
      "4e46": 3414,
      "6bc": 3415,
      "##af1": 3416,
      "##6cd": 3417,
      "##184": 3418,
      "##d99": 3419,
      "6834": 3420,
      "8034": 3421,
      "d434": 3422,
      "1a34": 3423,
      "11f8": 3424,
      "4e34": 3425,
      "4734": 3426,
      "95d": 3427,
      "b89": 3428,
      "f134": 3429,
      "##749": 3430,
      "##e91": 3431,
      "##acd": 3432,
      "295d": 3433,
      "a034": 3434,
      "2634": 3435,
      "f5d": 3436,
      "bb5e": 3437,
      "6d34": 3438,
      "##441": 3439,
      "3208": 3440,
      "c034": 3441,
      "##bb5": 3442,
      "bb95": 3443,
      "##eb4": 3444,
      "##efb": 3445,
      "##33c": 3446,
      "6161": 3447,
      "4e01": 3448,
      "3f4": 3449,
      "ea84": 3450,
      "##942": 3451,
      "##6d9": 3452,
      "##a99": 3453,
      "##537": 3454,
      "863": 3455,
      "803": 3456,
      "d734": 3457,
      "e9c": 3458,
      "bbd6": 3459,
      "##5bd": 3460,
      "##e9d": 3461,
      "##f21": 3462,
      "##dd8": 3463,
      "f901": 3464,
      "d19c": 3465,
      "4634": 3466,
      "0013": 3467,
      "bba0": 3468,
      "##f2f": 3469,
      "##281": 3470,
      "ddc0": 3471,
      "a834": 3472,
      "3534": 3473,
      "1f34": 3474,
      "91ce": 3475,
      "cf9": 3476,
      "016a": 3477,
      "##591": 3478,
      "##791": 3479,
      "##dc5": 3480,
      "##62a": 3481,
      "##a3d": 3482,
      "94c0": 3483,
      "06d1": 3484,
      "##109": 3485,
      "f0f6": 3486,
      "##ecd": 3487,
      "##a9d": 3488,
      "##731": 3489,
      "##795": 3490,
      "##a0b": 3491,
      "e3c0": 3492,
      "d4c0": 3493,
      "bb5c": 3494,
      "bba8": 3495,
      "##171": 3496,
      "f334": 3497,
      "9326": 3498,
      "e14c": 3499,
      "9f44": 3500,
      "90a": 3501,
      "0649": 3502,
      "##741": 3503,
      "##ac9": 3504,
      "##7ba": 3505,
      "##777": 3506,
      "##fd1": 3507,
      "5429": 3508,
      "1ed": 3509,
      "659e": 3510,
      "8f9": 3511,
      "900": 3512,
      "b00": 3513,
      "b0a": 3514,
      "c22": 3515,
      "7c50": 3516,
      "bbf7": 3517,
      "bbda": 3518,
      "##10e": 3519,
      "##e49": 3520,
      "##ab8": 3521,
      "566c": 3522,
      "5584": 3523,
      "a00": 3524,
      "012f": 3525,
      "##e2d": 3526,
      "##c36": 3527,
      "##9bd": 3528,
      "eb8c": 3529,
      "01c2": 3530,
      "3bbe": 3531,
      "88d": 3532,
      "a5d": 3533,
      "c08": 3534,
      "##509": 3535,
      "06e8": 3536,
      "##e99": 3537,
      "##f39": 3538,
      "##d91": 3539,
      "##f05": 3540,
      "31c0": 3541,
      "bb31": 3542,
      "c8d": 3543,
      "##e5c": 3544,
      "bb1a": 3545,
      "##1d9": 3546,
      "##ab5": 3547,
      "06d7": 3548,
      "26e5": 3549,
      "##af5": 3550,
      "##a91": 3551,
      "##7b9": 3552,
      "##dcd": 3553,
      "##fb1": 3554,
      "##b48": 3555,
      "##981": 3556,
      "##431": 3557,
      "5306": 3558,
      "ebc0": 3559,
      "8e05": 3560,
      "c5d": 3561,
      "ced": 3562,
      "06f0": 3563,
      "bb25": 3564,
      "bbaa": 3565,
      "bb66": 3566,
      "bbcf": 3567,
      "##d39": 3568,
      "756b": 3569,
      "##b91": 3570,
      "fcc0": 3571,
      "aeec": 3572,
      "8f85": 3573,
      "c0a": 3574,
      "##139": 3575,
      "##9b5": 3576,
      "##e1e": 3577,
      "a95c": 3578,
      "##2c9": 3579,
      "93d6": 3580,
      "bb37": 3581,
      "3a4e": 3582,
      "cf4": 3583,
      "##e5d": 3584,
      "bb1b": 3585,
      "bb29": 3586,
      "bb57": 3587,
      "##72d": 3588,
      "##ea7": 3589,
      "##77f": 3590,
      "##a3b": 3591,
      "##9d6": 3592,
      "f454": 3593,
      "85d": 3594,
      "bb59": 3595,
      "##e71": 3596,
      "##645": 3597,
      "##641": 3598,
      "##e31": 3599,
      "##e26": 3600,
      "5dad": 3601,
      "4cc0": 3602,
      "53c0": 3603,
      "013c": 3604,
      "fcc": 3605,
      "##50e": 3606,
      "bb80": 3607,
      "bbe7": 3608,
      "bbfb": 3609,
      "f06b": 3610,
      "##6d1": 3611,
      "##6c5": 3612,
      "##29d": 3613,
      "##e0b": 3614,
      "505e": 3615,
      "##efd": 3616,
      "5c8d": 3617,
      "308": 3618,
      "6ed": 3619,
      "808": 3620,
      "bad": 3621,
      "c93c": 3622,
      "019d": 3623,
      "bb36": 3624,
      "##839": 3625,
      "##b31": 3626,
      "54c0": 3627,
      "60c0": 3628,
      "bbce": 3629,
      "80a": 3630,
      "889": 3631,
      "a0a": 3632,
      "cfcd": 3633,
      "d23": 3634,
      "bb1e": 3635,
      "a97c": 3636,
      "318e": 3637,
      "408": 3638,
      "d63": 3639,
      "271d": 3640,
      "##a9e": 3641,
      "##73c": 3642,
      "##a05": 3643,
      "dbc0": 3644,
      "c0d": 3645,
      "##541": 3646,
      "##80d": 3647,
      "##13d": 3648,
      "##691": 3649,
      "##6a5": 3650,
      "##e16": 3651,
      "f3c0": 3652,
      "a3c4": 3653,
      "6696": 3654,
      "99c": 3655,
      "d08": 3656,
      "##c0e": 3657,
      "bb19": 3658,
      "bbc5": 3659,
      "##805": 3660,
      "##afd": 3661,
      "##68b": 3662,
      "acc0": 3663,
      "110a": 3664,
      "11cb": 3665,
      "463": 3666,
      "663": 3667,
      "##549": 3668,
      "bbad": 3669,
      "##930": 3670,
      "75d": 3671,
      "eed": 3672,
      "bb88": 3673,
      "##6ac": 3674,
      "##9d2": 3675,
      "d18c": 3676,
      "389": 3677,
      "c23": 3678,
      "cfa": 3679,
      "##5c9": 3680,
      "6856": 3681,
      "##a0e": 3682,
      "8226": 3683,
      "6746": 3684,
      "e0a": 3685,
      "fa3c": 3686,
      "bb74": 3687,
      "186c": 3688,
      "##8c5": 3689,
      "##d41": 3690,
      "338e": 3691,
      "310a": 3692,
      "15d": 3693,
      "2eb5": 3694,
      "a50a": 3695,
      "0104": 3696,
      "06dd": 3697,
      "bbac": 3698,
      "##5b5": 3699,
      "67be": 3700,
      "7f4": 3701,
      "9fa": 3702,
      "b8d": 3703,
      "bb79": 3704,
      "##b39": 3705,
      "##1c9": 3706,
      "##a56": 3707,
      "##fc5": 3708,
      "##e67": 3709,
      "a4c0": 3710,
      "6e01": 3711,
      "9e14": 3712,
      "8f45": 3713,
      "704": 3714,
      "a4d": 3715,
      "a7d": 3716,
      "abc": 3717,
      "b03": 3718,
      "d34": 3719,
      "f63": 3720,
      "06eb": 3721,
      "0693": 3722,
      "bbf3": 3723,
      "bb9f": 3724,
      "283": 3725,
      "##15a": 3726,
      "##7a2": 3727,
      "6bd": 3728,
      "efa": 3729,
      "01a0": 3730,
      "bb13": 3731,
      "##f51": 3732,
      "##133": 3733,
      "##ea5": 3734,
      "##f25": 3735,
      "##a41": 3736,
      "##fd5": 3737,
      "cd6d": 3738,
      "63c0": 3739,
      "##9da": 3740,
      "d00d": 3741,
      "67fe": 3742,
      "6abe": 3743,
      "f984": 3744,
      "##c05": 3745,
      "0601": 3746,
      "bb96": 3747,
      "##6d5": 3748,
      "##68a": 3749,
      "##209": 3750,
      "##ea6": 3751,
      "##dd5": 3752,
      "##b49": 3753,
      "##785": 3754,
      "1450": 3755,
      "a604": 3756,
      "14d": 3757,
      "623": 3758,
      "016c": 3759,
      "##7c7": 3760,
      "069f": 3761,
      "bb46": 3762,
      "##1f6": 3763,
      "c49c": 3764,
      "360": 3765,
      "4eee": 3766,
      "##c0d": 3767,
      "##12d": 3768,
      "0669": 3769,
      "##522": 3770,
      "##80e": 3771,
      "186a": 3772,
      "##1b5": 3773,
      "48a9": 3774,
      "##90e": 3775,
      "2fa": 3776,
      "d1f4": 3777,
      "##ff1": 3778,
      "01a1": 3779,
      "##f55": 3780,
      "##ebe": 3781,
      "##79d": 3782,
      "##156": 3783,
      "##c31": 3784,
      "##dc2": 3785,
      "f16c": 3786,
      "201": 3787,
      "5151": 3788,
      "c7d": 3789,
      "0181": 3790,
      "bb83": 3791,
      "##40e": 3792,
      "##a9f": 3793,
      "##74f": 3794,
      "##a2a": 3795,
      "##b99": 3796,
      "d3c0": 3797,
      "a23": 3798,
      "b22": 3799,
      "d4d": 3800,
      "0667": 3801,
      "0684": 3802,
      "bbe3": 3803,
      "##405": 3804,
      "##1f0": 3805,
      "##5cd": 3806,
      "##7a5": 3807,
      "6803": 3808,
      "a24": 3809,
      "##102": 3810,
      "##75d": 3811,
      "c9e5": 3812,
      "3ed": 3813,
      "a03": 3814,
      "e08": 3815,
      "e60": 3816,
      "0180": 3817,
      "01dc": 3818,
      "bb1f": 3819,
      "##10d": 3820,
      "##1dd": 3821,
      "##ac5": 3822,
      "##43a": 3823,
      "##449": 3824,
      "324": 3825,
      "018d": 3826,
      "019a": 3827,
      "##769": 3828,
      "##695": 3829,
      "##eb8": 3830,
      "##25f": 3831,
      "##255": 3832,
      "##a2c": 3833,
      "6ca6": 3834,
      "6bf6": 3835,
      "90d": 3836,
      "06b7": 3837,
      "##ebf": 3838,
      "##20e": 3839,
      "##725": 3840,
      "48d1": 3841,
      "0508": 3842,
      "523": 3843,
      "923": 3844,
      "a08": 3845,
      "##806": 3846,
      "##94a": 3847,
      "##765": 3848,
      "##f3a": 3849,
      "##2d1": 3850,
      "901": 3851,
      "b4d": 3852,
      "0169": 3853,
      "0105": 3854,
      "##10b": 3855,
      "##111": 3856,
      "##78b": 3857,
      "##339": 3858,
      "##702": 3859,
      "263": 3860,
      "011a": 3861,
      "##836": 3862,
      "##199": 3863,
      "##e30": 3864,
      "0b73": 3865,
      "##7a4": 3866,
      "##782": 3867,
      "##43c": 3868,
      "##555": 3869,
      "ae64": 3870,
      "423": 3871,
      "87d": 3872,
      "d22": 3873,
      "0129": 3874,
      "0106": 3875,
      "##658": 3876,
      "##5c4": 3877,
      "##b3c": 3878,
      "##6fd": 3879,
      "##1c1": 3880,
      "0969": 3881,
      "##a28": 3882,
      "##57f": 3883,
      "24d": 3884,
      "84d": 3885,
      "922": 3886,
      "010d": 3887,
      "##7c6": 3888,
      "##52d": 3889,
      "##1fe": 3890,
      "##4cd": 3891,
      "f4c0": 3892,
      "01c6": 3893,
      "a101": 3894,
      "bb3c": 3895,
      "115e": 3896,
      "303": 3897,
      "##ff5": 3898,
      "##545": 3899,
      "0692": 3900,
      "##a0f": 3901,
      "a9fc": 3902,
      "##e5b": 3903,
      "##ad5": 3904,
      "ce0d": 3905,
      "77d": 3906,
      "0113": 3907,
      "0172": 3908,
      "##7c4": 3909,
      "##e55": 3910,
      "##114": 3911,
      "##6b2": 3912,
      "##6c6": 3913,
      "##733": 3914,
      "##f35": 3915,
      "4867": 3916,
      "##e28": 3917,
      "##e07": 3918,
      "##6ea": 3919,
      "##939": 3920,
      "##ab7": 3921,
      "67d": 3922,
      "8e7": 3923,
      "b08": 3924,
      "014d": 3925,
      "01bf": 3926,
      "0648": 3927,
      "##186": 3928,
      "##fd0": 3929,
      "##f0e": 3930,
      "##7f7": 3931,
      "0136": 3932,
      "9ed": 3933,
      "a0c": 3934,
      "b63": 3935,
      "##ffd": 3936,
      "0154": 3937,
      "01b6": 3938,
      "##e86": 3939,
      "##1f2": 3940,
      "##5cc": 3941,
      "##1c5": 3942,
      "0940": 3943,
      "##f3c": 3944,
      "##d3d": 3945,
      "##fb8": 3946,
      "##fb5": 3947,
      "##a55": 3948,
      "1966": 3949,
      "##2cd": 3950,
      "b01c": 3951,
      "403": 3952,
      "5ed": 3953,
      "723": 3954,
      "734": 3955,
      "823": 3956,
      "a9c": 3957,
      "a89": 3958,
      "d03": 3959,
      "0149": 3960,
      "bb85": 3961,
      "##ec5": 3962,
      "##a8e": 3963,
      "##e3c": 3964,
      "##145": 3965,
      "##57e": 3966,
      "8dc5": 3967,
      "1603": 3968,
      "5fa": 3969,
      "689": 3970,
      "a6fe": 3971,
      "fed": 3972,
      "##6b0": 3973,
      "##a93": 3974,
      "##13b": 3975,
      "##7ae": 3976,
      "##70f": 3977,
      "0135": 3978,
      "134": 3979,
      "1a5e": 3980,
      "30a": 3981,
      "57d": 3982,
      "8fa": 3983,
      "dfa": 3984,
      "01a2": 3985,
      "019e": 3986,
      "##528": 3987,
      "##ecb": 3988,
      "##17f": 3989,
      "##14e": 3990,
      "##ef0": 3991,
      "##62e": 3992,
      "##909": 3993,
      "##167": 3994,
      "80d": 3995,
      "c4d": 3996,
      "014f": 3997,
      "bb75": 3998,
      "##1bd": 3999,
      "##77e": 4000,
      "##a37": 4001,
      "3bee": 4002,
      "1503": 4003,
      "608": 4004,
      "7fa": 4005,
      "015c": 4006,
      "01a8": 4007,
      "bb65": 4008,
      "f066": 4009,
      "1964": 4010,
      "703": 4011,
      "01ac": 4012,
      "01d4": 4013,
      "##7c3": 4014,
      "##6c4": 4015,
      "##b35": 4016,
      "##1a7": 4017,
      "##ccd": 4018,
      "##d48": 4019,
      "##a3e": 4020,
      "##78f": 4021,
      "##f86": 4022,
      "6563": 4023,
      "0137": 4024,
      "7f9": 4025,
      "801": 4026,
      "##c09": 4027,
      "d83": 4028,
      "0d40": 4029,
      "##7bd": 4030,
      "##9b8": 4031,
      "##2b7": 4032,
      "##9d1": 4033,
      "##b51": 4034,
      "0131": 4035,
      "54d": 4036,
      "01c0": 4037,
      "0185": 4038,
      "##126": 4039,
      "06bf": 4040,
      "##1b0": 4041,
      "##6cf": 4042,
      "##e45": 4043,
      "##1de": 4044,
      "##ace": 4045,
      "##dcb": 4046,
      "##9b4": 4047,
      "##335": 4048,
      "##902": 4049,
      "##445": 4050,
      "69c": 4051,
      "7409": 4052,
      "824": 4053,
      "af4": 4054,
      "ded": 4055,
      "0146": 4056,
      "010e": 4057,
      "0646": 4058,
      "##1bc": 4059,
      "##f5e": 4060,
      "##e95": 4061,
      "##706": 4062,
      "##2bd": 4063,
      "c4c0": 4064,
      "963": 4065,
      "011f": 4066,
      "010b": 4067,
      "##54c": 4068,
      "067c": 4069,
      "##5b0": 4070,
      "f0b2": 4071,
      "##656": 4072,
      "##187": 4073,
      "##a58": 4074,
      "##a2b": 4075,
      "##b8e": 4076,
      "##2b5": 4077,
      "##2d5": 4078,
      "01ce": 4079,
      "0540": 4080,
      "2f9": 4081,
      "55d": 4082,
      "a34": 4083,
      "c24": 4084,
      "f8d": 4085,
      "017b": 4086,
      "0188": 4087,
      "##c06": 4088,
      "##5b2": 4089,
      "##83d": 4090,
      "##6a7": 4091,
      "##6a6": 4092,
      "##1ae": 4093,
      "##ab0": 4094,
      "##a33": 4095,
      "##7f6": 4096,
      "01c1": 4097,
      "322": 4098,
      "8ed": 4099,
      "d24": 4100,
      "011b": 4101,
      "0183": 4102,
      "0159": 4103,
      "011e": 4104,
      "##ec3": 4105,
      "##699": 4106,
      "##c39": 4107,
      "##a2f": 4108,
      "##448": 4109,
      "7068": 4110,
      "79c": 4111,
      "018c": 4112,
      "0174": 4113,
      "011d": 4114,
      "0161": 4115,
      "0116": 4116,
      "0166": 4117,
      "01ae": 4118,
      "019f": 4119,
      "bb4d": 4120,
      "bb8c": 4121,
      "##5ba": 4122,
      "##6cb": 4123,
      "##688": 4124,
      "##687": 4125,
      "##285": 4126,
      "30d": 4127,
      "44d": 4128,
      "7401": 4129,
      "97d": 4130,
      "bf4": 4131,
      "e23": 4132,
      "f23": 4133,
      "0119": 4134,
      "0126": 4135,
      "0195": 4136,
      "0642": 4137,
      "##80b": 4138,
      "##115": 4139,
      "f0f5": 4140,
      "##f5d": 4141,
      "##138": 4142,
      "##69d": 4143,
      "48b0": 4144,
      "##149": 4145,
      "##d49": 4146,
      "19d6": 4147,
      "##58e": 4148,
      "##f84": 4149,
      "##991": 4150,
      "38d": 4151,
      "60a": 4152,
      "015e": 4153,
      "012d": 4154,
      "0196": 4155,
      "##af7": 4156,
      "##6d3": 4157,
      "0602": 4158,
      "0e15": 4159,
      "0138": 4160,
      "f144": 4161,
      "4536": 4162,
      "603": 4163,
      "e22": 4164,
      "0189": 4165,
      "0125": 4166,
      "014e": 4167,
      "0148": 4168,
      "##c0b": 4169,
      "##65f": 4170,
      "##e33": 4171,
      "##e32": 4172,
      "##14f": 4173,
      "##e2f": 4174,
      "##727": 4175,
      "##182": 4176,
      "##18a": 4177,
      "##93d": 4178,
      "##1ee": 4179,
      "##aa7": 4180,
      "##2db": 4181,
      "9df8": 4182,
      "e901": 4183,
      "b719": 4184,
      "304": 4185,
      "bed": 4186,
      "cad": 4187,
      "0168": 4188,
      "0176": 4189,
      "068c": 4190,
      "0d0a": 4191,
      "##e87": 4192,
      "##e8a": 4193,
      "##6b5": 4194,
      "##a97": 4195,
      "##a8f": 4196,
      "##18b": 4197,
      "##ea3": 4198,
      "##f28": 4199,
      "##707": 4200,
      "4f9": 4201,
      "70a": 4202,
      "8bc": 4203,
      "e89": 4204,
      "0173": 4205,
      "0165": 4206,
      "0117": 4207,
      "01aa": 4208,
      "06b2": 4209,
      "##5b8": 4210,
      "##ec7": 4211,
      "##6c7": 4212,
      "##6ca": 4213,
      "##d3a": 4214,
      "##61e": 4215,
      "##b0e": 4216,
      "6462": 4217,
      "1f8b": 4218,
      "3bc": 4219,
      "017d": 4220,
      "01da": 4221,
      "##7c2": 4222,
      "273": 4223,
      "##526": 4224,
      "##11d": 4225,
      "##75f": 4226,
      "##6ab": 4227,
      "##178": 4228,
      "##177": 4229,
      "##e2c": 4230,
      "##acc": 4231,
      "013f": 4232,
      "40d": 4233,
      "88c": 4234,
      "afa": 4235,
      "d0c": 4236,
      "e24": 4237,
      "0115": 4238,
      "01a5": 4239,
      "014c": 4240,
      "0186": 4241,
      "01be": 4242,
      "0187": 4243,
      "0147": 4244,
      "##124": 4245,
      "##10f": 4246,
      "##eca": 4247,
      "##684": 4248,
      "##1fc": 4249,
      "##a8a": 4250,
      "##1a4": 4251,
      "686f": 4252,
      "##a07": 4253,
      "##4ce": 4254,
      "616e": 4255,
      "01c9": 4256,
      "b23c": 4257,
      "534": 4258,
      "722": 4259,
      "01ad": 4260,
      "0122": 4261,
      "0179": 4262,
      "01b1": 4263,
      "01ba": 4264,
      "0141": 4265,
      "##e82": 4266,
      "##e37": 4267,
      "##c35": 4268,
      "##626": 4269,
      "##ea2": 4270,
      "##fce": 4271,
      "##a32": 4272,
      "##ddb": 4273,
      "##330": 4274,
      "##67f": 4275,
      "98fe": 4276,
      "0130": 4277,
      "2f61": 4278,
      "d611": 4279,
      "211a": 4280,
      "0175": 4281,
      "015d": 4282,
      "019b": 4283,
      "0193": 4284,
      "01dd": 4285,
      "0143": 4286,
      "##af3": 4287,
      "f0e1": 4288,
      "##a98": 4289,
      "##a87": 4290,
      "##ac7": 4291,
      "##eab": 4292,
      "##f2e": 4293,
      "49fc": 4294,
      "01cf": 4295,
      "0809": 4296,
      "224": 4297,
      "0194": 4298,
      "0162": 4299,
      "01ab": 4300,
      "018f": 4301,
      "015f": 4302,
      "014a": 4303,
      "##c0f": 4304,
      "06b3": 4305,
      "bb8f": 4306,
      "##e8f": 4307,
      "##1be": 4308,
      "##f26": 4309,
      "##b95": 4310,
      "##4cf": 4311,
      "013d": 4312,
      "01c7": 4313,
      "2033": 4314,
      "7b4": 4315,
      "a88": 4316,
      "bfa": 4317,
      "f22": 4318,
      "01af": 4319,
      "01a3": 4320,
      "0171": 4321,
      "0155": 4322,
      "0191": 4323,
      "018b": 4324,
      "##7cc": 4325,
      "06b8": 4326,
      "06b5": 4327,
      "##6c3": 4328,
      "##682": 4329,
      "##293": 4330,
      "##598": 4331,
      "##62c": 4332,
      "##ea4": 4333,
      "9811": 4334,
      "b60": 4335,
      "015b": 4336,
      "019c": 4337,
      "01f3": 4338,
      "0163": 4339,
      "0178": 4340,
      "0184": 4341,
      "014b": 4342,
      "0107": 4343,
      "233": 4344,
      "##bbc": 4345,
      "##52b": 4346,
      "##e88": 4347,
      "##1b3": 4348,
      "##ec6": 4349,
      "##65c": 4350,
      "##1ab": 4351,
      "##7a0": 4352,
      "##dd7": 4353,
      "##fd8": 4354,
      "6e64": 4355,
      "4f4": 4356,
      "feb2": 4357,
      "##507": 4358,
      "0160": 4359,
      "016b": 4360,
      "0124": 4361,
      "01c3": 4362,
      "012b": 4363,
      "017f": 4364,
      "010f": 4365,
      "0109": 4366,
      "##7cf": 4367,
      "##a9b": 4368,
      "##65a": 4369,
      "##5c3": 4370,
      "##e38": 4371,
      "##e9e": 4372,
      "##f38": 4373,
      "##e2b": 4374,
      "##1a3": 4375,
      "##7b0": 4376,
      "6861": 4377,
      "##627": 4378,
      "##ea0": 4379,
      "##a3f": 4380,
      "##586": 4381,
      "1a60": 4382,
      "c63": 4383,
      "f89": 4384,
      "0118": 4385,
      "0133": 4386,
      "0170": 4387,
      "012a": 4388,
      "0199": 4389,
      "2810": 4390,
      "f09f": 4391,
      "##f56": 4392,
      "##6d2": 4393,
      "##132": 4394,
      "##17a": 4395,
      "##e2e": 4396,
      "##efc": 4397,
      "##fb7": 4398,
      "##f88": 4399,
      "##f8a": 4400,
      "##43b": 4401,
      "##f06": 4402,
      "6a7d": 4403,
      "##2f6": 4404,
      "01c5": 4405,
      "95c0": 4406,
      "6539": 4407,
      "ebc": 4408,
      "020a": 4409,
      "0144": 4410,
      "0151": 4411,
      "0197": 4412,
      "##e58": 4413,
      "06ac": 4414,
      "##6bd": 4415,
      "##75a": 4416,
      "##53d": 4417,
      "##130": 4418,
      "##7a3": 4419,
      "##ef7": 4420,
      "##25a": 4421,
      "##dde": 4422,
      "##f7e": 4423,
      "013a": 4424,
      "11ca": 4425,
      "68d": 4426,
      "6a02": 4427,
      "888": 4428,
      "a01": 4429,
      "f7d": 4430,
      "010c": 4431,
      "011c": 4432,
      "01a4": 4433,
      "0158": 4434,
      "0198": 4435,
      "015a": 4436,
      "##12a": 4437,
      "bb7a": 4438,
      "f099": 4439,
      "##f57": 4440,
      "##76a": 4441,
      "##b30": 4442,
      "##6aa": 4443,
      "##20f": 4444,
      "##a26": 4445,
      "##aa6": 4446,
      "7307": 4447,
      "0132": 4448,
      "d001": 4449,
      "2ed": 4450,
      "3fa": 4451,
      "c03": 4452,
      "d01": 4453,
      "0112": 4454,
      "0164": 4455,
      "0153": 4456,
      "0190": 4457,
      "018a": 4458,
      "0182": 4459,
      "##128": 4460,
      "7c3": 4461,
      "bb4e": 4462,
      "##ec2": 4463,
      "##6d0": 4464,
      "##e3f": 4465,
      "##79a": 4466,
      "##ac8": 4467,
      "##7bf": 4468,
      "##6ee": 4469,
      "##d30": 4470,
      "##7aa": 4471,
      "##9b2": 4472,
      "##f2c": 4473,
      "##337": 4474,
      "##b88": 4475,
      "##4ca": 4476,
      "7073": 4477,
      "##551": 4478,
      "a410": 4479,
      "3963": 4480,
      "013b": 4481,
      "0139": 4482,
      "f031": 4483,
      "7e7": 4484,
      "819e": 4485,
      "aad": 4486,
      "0152": 4487,
      "016d": 4488,
      "0128": 4489,
      "0167": 4490,
      "01b5": 4491,
      "01a7": 4492,
      "01d6": 4493,
      "01d5": 4494,
      "##7ce": 4495,
      "##6cc": 4496,
      "##e47": 4497,
      "##1d3": 4498,
      "##f3b": 4499,
      "##79b": 4500,
      "##158": 4501,
      "##7ab": 4502,
      "##628": 4503,
      "##4c6": 4504,
      "e34": 4505,
      "0240": 4506,
      "01cc": 4507,
      "01d3": 4508,
      "0177": 4509,
      "01b0": 4510,
      "01bd": 4511,
      "01a6": 4512,
      "0121": 4513,
      "0156": 4514,
      "0145": 4515,
      "01b7": 4516,
      "##afc": 4517,
      "##e83": 4518,
      "##f53": 4519,
      "##6c2": 4520,
      "##a96": 4521,
      "##69e": 4522,
      "##73e": 4523,
      "##e2a": 4524,
      "##7b2": 4525,
      "##efe": 4526,
      "##787": 4527,
      "##aae": 4528,
      "563": 4529,
      "6cc": 4530,
      "01b4": 4531,
      "012c": 4532,
      "0142": 4533,
      "##198": 4534,
      "##69b": 4535,
      "##a88": 4536,
      "##14b": 4537,
      "##79f": 4538,
      "##e0f": 4539,
      "##c3d": 4540,
      "##ef2": 4541,
      "##258": 4542,
      "##58b": 4543,
      "##fd6": 4544,
      "##432": 4545,
      "##b5f": 4546,
      "2f03": 4547,
      "3f33": 4548,
      "588": 4549,
      "5b85": 4550,
      "624": 4551,
      "934": 4552,
      "98d": 4553,
      "9c08": 4554,
      "af9": 4555,
      "ec0c": 4556,
      "017c": 4557,
      "01bc": 4558,
      "016f": 4559,
      "01e0": 4560,
      "016e": 4561,
      "01d0": 4562,
      "bbd4": 4563,
      "##767": 4564,
      "##737": 4565,
      "##1df": 4566,
      "##29f": 4567,
      "##e98": 4568,
      "##79e": 4569,
      "##a06": 4570,
      "##a45": 4571,
      "##f02": 4572,
      "##4c4": 4573,
      "01c8": 4574,
      "01cd": 4575,
      "7003": 4576,
      "422": 4577,
      "0114": 4578,
      "01d9": 4579,
      "01b8": 4580,
      "01d1": 4581,
      "f056": 4582,
      "##a92": 4583,
      "##e3a": 4584,
      "4865": 4585,
      "##798": 4586,
      "##6ef": 4587,
      "##9b7": 4588,
      "##fba": 4589,
      "##ab6": 4590,
      "##333": 4591,
      "##f82": 4592,
      "##b9f": 4593,
      "##444": 4594,
      "01c4": 4595,
      "d294": 4596,
      "4ad": 4597,
      "aa4c": 4598,
      "cb4": 4599,
      "df4": 4600,
      "01b2": 4601,
      "01d2": 4602,
      "##7c8": 4603,
      "##e57": 4604,
      "0663": 4605,
      "##bb7": 4606,
      "183": 4607,
      "##757": 4608,
      "##68e": 4609,
      "486a": 4610,
      "##acf": 4611,
      "##d44": 4612,
      "##ab4": 4613,
      "##a27": 4614,
      "##4c2": 4615,
      "##9d5": 4616,
      "93c0": 4617,
      "013e": 4618,
      "b7d": 4619,
      "##ff0": 4620,
      "01d7": 4621,
      "##12f": 4622,
      "##404": 4623,
      "18c0": 4624,
      "##e8e": 4625,
      "##6d8": 4626,
      "##68f": 4627,
      "##6f6": 4628,
      "##6a2": 4629,
      "##acb": 4630,
      "##7b6": 4631,
      "##728": 4632,
      "##eae": 4633,
      "##f27": 4634,
      "##438": 4635,
      "##f0b": 4636,
      "17d": 4637,
      "40c": 4638,
      "70d": 4639,
      "763": 4640,
      "dbc": 4641,
      "0127": 4642,
      "##c04": 4643,
      "##127": 4644,
      "##f5a": 4645,
      "##75c": 4646,
      "##5cb": 4647,
      "##6f2": 4648,
      "##f3f": 4649,
      "##793": 4650,
      "##15f": 4651,
      "##d3f": 4652,
      "##d42": 4653,
      "##a57": 4654,
      "##fc4": 4655,
      "##2bf": 4656,
      "01ca": 4657,
      "bbb1": 4658,
      "4bc": 4659,
      "f4d": 4660,
      "01b3": 4661,
      "01e1": 4662,
      "##e53": 4663,
      "06bb": 4664,
      "##bbb": 4665,
      "##520": 4666,
      "##73b": 4667,
      "##744": 4668,
      "##a86": 4669,
      "##a38": 4670,
      "##786": 4671,
      "##2c1": 4672,
      "##44b": 4673,
      "##bd5": 4674,
      "063b": 4675,
      "##951": 4676,
      "60d": 4677,
      "94d": 4678,
      "f24": 4679,
      "01e2": 4680,
      "01de": 4681,
      "##bba": 4682,
      "bb05": 4683,
      "##5b7": 4684,
      "##f3e": 4685,
      "##d38": 4686,
      "##ef4": 4687,
      "##fca": 4688,
      "##a48": 4689,
      "add4": 4690,
      "##5ee": 4691,
      "f876": 4692,
      "a3c0": 4693,
      "bb3d": 4694,
      "404": 4695,
      "d0d": 4696,
      "##afb": 4697,
      "f068": 4698,
      "##1b8": 4699,
      "##ec8": 4700,
      "##13f": 4701,
      "##692": 4702,
      "##1db": 4703,
      "##5c7": 4704,
      "##29b": 4705,
      "##ac6": 4706,
      "##dc7": 4707,
      "##dca": 4708,
      "##fb4": 4709,
      "##f0f": 4710,
      "d119": 4711,
      "634": 4712,
      "6fa": 4713,
      "6f9": 4714,
      "74d": 4715,
      "f9c": 4716,
      "##502": 4717,
      "01e7": 4718,
      "##12e": 4719,
      "bbd2": 4720,
      "##5b4": 4721,
      "f075": 4722,
      "##e3e": 4723,
      "##62b": 4724,
      "##f2a": 4725,
      "##b07": 4726,
      "##784": 4727,
      "0bc5": 4728,
      "589": 4729,
      "01e9": 4730,
      "01f1": 4731,
      "##122": 4732,
      "##e5f": 4733,
      "06fd": 4734,
      "bb23": 4735,
      "##e8c": 4736,
      "##118": 4737,
      "f055": 4738,
      "##64a": 4739,
      "##1cb": 4740,
      "##17b": 4741,
      "##ef8": 4742,
      "##a30": 4743,
      "##a3a": 4744,
      "##78e": 4745,
      "##fdf": 4746,
      "##fd2": 4747,
      "##44f": 4748,
      "c3a4": 4749,
      "##b55": 4750,
      "##955": 4751,
      "3ad": 4752,
      "ab9d": 4753,
      "01b9": 4754,
      "##524": 4755,
      "f0eb": 4756,
      "f09e": 4757,
      "##835": 4758,
      "##6b3": 4759,
      "##64c": 4760,
      "##6ce": 4761,
      "##e4f": 4762,
      "##e46": 4763,
      "##13a": 4764,
      "##6f4": 4765,
      "##290": 4766,
      "##1a6": 4767,
      "##72a": 4768,
      "##eaa": 4769,
      "##fd7": 4770,
      "fb08": 4771,
      "0340": 4772,
      "c34": 4773,
      "d7d": 4774,
      "##12c": 4775,
      "##e56": 4776,
      "##406": 4777,
      "##698": 4778,
      "##697": 4779,
      "##a82": 4780,
      "##593": 4781,
      "##6a4": 4782,
      "##f30": 4783,
      "##790": 4784,
      "##796": 4785,
      "##ac2": 4786,
      "##d3b": 4787,
      "##d90": 4788,
      "##938": 4789,
      "##fcb": 4790,
      "##f8f": 4791,
      "##666": 4792,
      "abc0": 4793,
      "ea44": 4794,
      "401": 4795,
      "4b4": 4796,
      "f026": 4797,
      "##6b9": 4798,
      "##686": 4799,
      "##657": 4800,
      "##597": 4801,
      "##e96": 4802,
      "##7a6": 4803,
      "##933": 4804,
      "##ab2": 4805,
      "##a46": 4806,
      "d04": 4807,
      "01db": 4808,
      "01d8": 4809,
      "##73a": 4810,
      "##6f0": 4811,
      "0908": 4812,
      "##ac3": 4813,
      "##207": 4814,
      "##7b7": 4815,
      "##7a7": 4816,
      "##fcf": 4817,
      "##b84": 4818,
      "##b8a": 4819,
      "9f9": 4820,
      "950a": 4821,
      "cbc": 4822,
      "01e4": 4823,
      "01f2": 4824,
      "01f7": 4825,
      "##7cb": 4826,
      "##bb2": 4827,
      "##40f": 4828,
      "##403": 4829,
      "f029": 4830,
      "f091": 4831,
      "##756": 4832,
      "##6f3": 4833,
      "##1c7": 4834,
      "48fa": 4835,
      "##ac4": 4836,
      "##7b8": 4837,
      "##9b0": 4838,
      "##9ba": 4839,
      "##fb2": 4840,
      "##33a": 4841,
      "##43e": 4842,
      "##28a": 4843,
      "##44c": 4844,
      "##4cb": 4845,
      "38c": 4846,
      "3b4": 4847,
      "49c": 4848,
      "5ad": 4849,
      "924": 4850,
      "01e8": 4851,
      "062f": 4852,
      "##407": 4853,
      "##af6": 4854,
      "##1b2": 4855,
      "##1ba": 4856,
      "##6d4": 4857,
      "##75e": 4858,
      "##690": 4859,
      "##693": 4860,
      "##297": 4861,
      "##59b": 4862,
      "##e3b": 4863,
      "##616": 4864,
      "##d4c": 4865,
      "##dd0": 4866,
      "##266": 4867,
      "##286": 4868,
      "##4c8": 4869,
      "063a": 4870,
      "7ad": 4871,
      "ae7": 4872,
      "##50c": 4873,
      "01f0": 4874,
      "##c07": 4875,
      "bbe2": 4876,
      "##52e": 4877,
      "f027": 4878,
      "##6d7": 4879,
      "##753": 4880,
      "##762": 4881,
      "##74c": 4882,
      "##1d8": 4883,
      "##5c2": 4884,
      "##e92": 4885,
      "##93e": 4886,
      "##b96": 4887,
      "##2b6": 4888,
      "ac01": 4889,
      "3608": 4890,
      "c614": 4891,
      "701": 4892,
      "db4": 4893,
      "##bb6": 4894,
      "f054": 4895,
      "f053": 4896,
      "##6bf": 4897,
      "##f5f": 4898,
      "##6a3": 4899,
      "##93a": 4900,
      "##fbf": 4901,
      "##ddf": 4902,
      "14c0": 4903,
      "f0a3": 4904,
      "e140": 4905,
      "1008": 4906,
      "64d3": 4907,
      "5bc": 4908,
      "b24": 4909,
      "##ff8": 4910,
      "01ef": 4911,
      "01ee": 4912,
      "##a9a": 4913,
      "##743": 4914,
      "##5c8": 4915,
      "##fc7": 4916,
      "##582": 4917,
      "##b02": 4918,
      "##43f": 4919,
      "3f9": 4920,
      "48c9": 4921,
      "b0c": 4922,
      "b0d": 4923,
      "01ea": 4924,
      "01f4": 4925,
      "##5b3": 4926,
      "##af2": 4927,
      "##6be": 4928,
      "##e4b": 4929,
      "##e4a": 4930,
      "##298": 4931,
      "##1c4": 4932,
      "##792": 4933,
      "##338": 4934,
      "##aaa": 4935,
      "cd40": 4936,
      "70c": 4937,
      "90c": 4938,
      "a0d": 4939,
      "b008": 4940,
      "0661": 4941,
      "0662": 4942,
      "##bb4": 4943,
      "bba9": 4944,
      "bba5": 4945,
      "f0f4": 4946,
      "##190": 4947,
      "##6e6": 4948,
      "##587": 4949,
      "##b90": 4950,
      "##570": 4951,
      "##2a6": 4952,
      "b908": 4953,
      "e26c": 4954,
      "365e": 4955,
      "4ed": 4956,
      "b8c": 4957,
      "b9c": 4958,
      "c04": 4959,
      "de7": 4960,
      "01e5": 4961,
      "01ec": 4962,
      "##54f": 4963,
      "066a": 4964,
      "##bb3": 4965,
      "##6b7": 4966,
      "##f58": 4967,
      "##b0f": 4968,
      "##fdb": 4969,
      "ad40": 4970,
      "e4b4": 4971,
      "d140": 4972,
      "39c": 4973,
      "df9": 4974,
      "##e5a": 4975,
      "52be": 4976,
      "##52c": 4977,
      "##194": 4978,
      "##763": 4979,
      "##590": 4980,
      "##1cd": 4981,
      "##17e": 4982,
      "##d47": 4983,
      "7908": 4984,
      "cbac": 4985,
      "19c": 4986,
      "1bc": 4987,
      "1408": 4988,
      "06fe": 4989,
      "f0cf": 4990,
      "##ecf": 4991,
      "##6da": 4992,
      "##69f": 4993,
      "##696": 4994,
      "##69a": 4995,
      "##1d0": 4996,
      "##d32": 4997,
      "##d98": 4998,
      "##78a": 4999,
      "##430": 5000,
      "##437": 5001,
      "##288": 5002,
      "##44e": 5003,
      "1f40": 5004,
      "9e7": 5005,
      "##e5e": 5006,
      "##804": 5007,
      "f0d0": 5008,
      "##730": 5009,
      "##e9b": 5010,
      "48ae": 5011,
      "##797": 5012,
      "##726": 5013,
      "##fb6": 5014,
      "##33b": 5015,
      "##446": 5016,
      "483a": 5017,
      "1ad": 5018,
      "4a16": 5019,
      "904": 5020,
      "ab4": 5021,
      "f34": 5022,
      "##50f": 5023,
      "01eb": 5024,
      "01f9": 5025,
      "01e6": 5026,
      "##54b": 5027,
      "06f4": 5028,
      "##bbf": 5029,
      "##80f": 5030,
      "##afa": 5031,
      "##643": 5032,
      "##143": 5033,
      "##72e": 5034,
      "##a5a": 5035,
      "##287": 5036,
      "##2be": 5037,
      "##bf6": 5038,
      "b140": 5039,
      "3e7": 5040,
      "789": 5041,
      "##ff3": 5042,
      "##ff2": 5043,
      "0201": 5044,
      "01f5": 5045,
      "##5be": 5046,
      "##af8": 5047,
      "f05c": 5048,
      "##83c": 5049,
      "##1d7": 5050,
      "484e": 5051,
      "##d97": 5052,
      "##fc2": 5053,
      "a940": 5054,
      "##267": 5055,
      "##b92": 5056,
      "##f07": 5057,
      "##447": 5058,
      "c440": 5059,
      "cb08": 5060,
      "bd40": 5061,
      "d540": 5062,
      "ee7": 5063,
      "e540": 5064,
      "01fb": 5065,
      "##547": 5066,
      "066c": 5067,
      "##40c": 5068,
      "0d29": 5069,
      "f0f9": 5070,
      "f02e": 5071,
      "##6d6": 5072,
      "##6fb": 5073,
      "##29a": 5074,
      "##72f": 5075,
      "##dc8": 5076,
      "##fb0": 5077,
      "##d43": 5078,
      "##fde": 5079,
      "##284": 5080,
      "6e7": 5081,
      "6402": 5082,
      "98c": 5083,
      "f05d": 5084,
      "##193": 5085,
      "##19b": 5086,
      "##6df": 5087,
      "##13e": 5088,
      "##74b": 5089,
      "##6f8": 5090,
      "##1c3": 5091,
      "##e90": 5092,
      "486c": 5093,
      "##14c": 5094,
      "##20b": 5095,
      "##257": 5096,
      "##b06": 5097,
      "##982": 5098,
      "e95c": 5099,
      "1608": 5100,
      "4e02": 5101,
      "804": 5102,
      "dad": 5103,
      "e88": 5104,
      "##ffe": 5105,
      "##527": 5106,
      "##40b": 5107,
      "f051": 5108,
      "##646": 5109,
      "##e4c": 5110,
      "##1c8": 5111,
      "4861": 5112,
      "##fbe": 5113,
      "##fc6": 5114,
      "##788": 5115,
      "##b86": 5116,
      "##f8e": 5117,
      "##907": 5118,
      "##90b": 5119,
      "dd40": 5120,
      "##2ae": 5121,
      "bbbf": 5122,
      "ba40": 5123,
      "f010": 5124,
      "48cd": 5125,
      "30c": 5126,
      "989": 5127,
      "a2d": 5128,
      "01f8": 5129,
      "##543": 5130,
      "##116": 5131,
      "f0c4": 5132,
      "##838": 5133,
      "##766": 5134,
      "##29e": 5135,
      "##e93": 5136,
      "##dc4": 5137,
      "##93f": 5138,
      "##a43": 5139,
      "##2c8": 5140,
      "dd08": 5141,
      "ab40": 5142,
      "af40": 5143,
      "b04c": 5144,
      "78c": 5145,
      "788": 5146,
      "8ad": 5147,
      "##ff7": 5148,
      "##542": 5149,
      "0694": 5150,
      "d840": 5151,
      "f0bb": 5152,
      "##192": 5153,
      "##74e": 5154,
      "##aca": 5155,
      "##9be": 5156,
      "##abf": 5157,
      "##98e": 5158,
      "##2fe": 5159,
      "7850": 5160,
      "f082": 5161,
      "a64c": 5162,
      "5f9": 5163,
      "01f6": 5164,
      "##54a": 5165,
      "##bb0": 5166,
      "##5bc": 5167,
      "##64b": 5168,
      "##f5c": 5169,
      "##e42": 5170,
      "##5ca": 5171,
      "##e9a": 5172,
      "c840": 5173,
      "##282": 5174,
      "df40": 5175,
      "a140": 5176,
      "de40": 5177,
      "260": 5178,
      "4fa": 5179,
      "80c": 5180,
      "c10c": 5181,
      "f033": 5182,
      "##93b": 5183,
      "##256": 5184,
      "##a44": 5185,
      "b840": 5186,
      "##b97": 5187,
      "9ae5": 5188,
      "b540": 5189,
      "fb4": 5190,
      "##ffc": 5191,
      "10f9": 5192,
      "1208": 5193,
      "##e44": 5194,
      "##147": 5195,
      "##fda": 5196,
      "e040": 5197,
      "ae40": 5198,
      "c140": 5199,
      "4945": 5200,
      "68c": 5201,
      "ecc": 5202,
      "##197": 5203,
      "##6bc": 5204,
      "##c3c": 5205,
      "##b87": 5206,
      "##98b": 5207,
      "##f87": 5208,
      "##b9a": 5209,
      "##28f": 5210,
      "##4c7": 5211,
      "f8ab": 5212,
      "e940": 5213,
      "0e08": 5214,
      "b640": 5215,
      "e740": 5216,
      "4c08": 5217,
      "483b": 5218,
      "5f4": 5219,
      "5e02": 5220,
      "960": 5221,
      "ead": 5222,
      "##ff4": 5223,
      "##6b8": 5224,
      "##647": 5225,
      "##a4f": 5226,
      "##2b2": 5227,
      "9808": 5228,
      "b440": 5229,
      "db40": 5230,
      "ce40": 5231,
      "e640": 5232,
      "77ff": 5233,
      "2e7": 5234,
      "2ad": 5235,
      "7bc": 5236,
      "ef9": 5237,
      "##12b": 5238,
      "06f7": 5239,
      "##107": 5240,
      "##1b4": 5241,
      "##e4e": 5242,
      "##6f7": 5243,
      "##592": 5244,
      "##e20": 5245,
      "##72c": 5246,
      "1b58": 5247,
      "##a42": 5248,
      "9351": 5249,
      "e808": 5250,
      "8a08": 5251,
      "b240": 5252,
      "2108": 5253,
      "f00d": 5254,
      "f88": 5255,
      "##544": 5256,
      "##1b7": 5257,
      "##73f": 5258,
      "##33f": 5259,
      "##2cb": 5260,
      "e840": 5261,
      "b740": 5262,
      "4893": 5263,
      "ee08": 5264,
      "604": 5265,
      "c60": 5266,
      "e501": 5267,
      "##52f": 5268,
      "0ccf": 5269,
      "##6de": 5270,
      "##53f": 5271,
      "##74a": 5272,
      "##f37": 5273,
      "##a4e": 5274,
      "b85a": 5275,
      "bc40": 5276,
      "cd50": 5277,
      "b940": 5278,
      "e240": 5279,
      "c613": 5280,
      "8cc": 5281,
      "be7": 5282,
      "dc08": 5283,
      "d340": 5284,
      "e0c": 5285,
      "026d": 5286,
      "##83a": 5287,
      "##1c2": 5288,
      "##c33": 5289,
      "##c37": 5290,
      "##986": 5291,
      "##2cf": 5292,
      "##442": 5293,
      "9d40": 5294,
      "3201": 5295,
      "a108": 5296,
      "da40": 5297,
      "d002": 5298,
      "be40": 5299,
      "0408": 5300,
      "3cc": 5301,
      "5cc": 5302,
      "ec08": 5303,
      "fe7": 5304,
      "02a2": 5305,
      "0a02": 5306,
      "0206": 5307,
      "01fa": 5308,
      "##6b6": 5309,
      "##648": 5310,
      "##742": 5311,
      "##e97": 5312,
      "##28b": 5313,
      "##bd1": 5314,
      "c940": 5315,
      "b040": 5316,
      "7508": 5317,
      "b34": 5318,
      "06b4": 5319,
      "##c3e": 5320,
      "##332": 5321,
      "##b8f": 5322,
      "##90f": 5323,
      "##bf7": 5324,
      "9d08": 5325,
      "3308": 5326,
      "e440": 5327,
      "f208": 5328,
      "d640": 5329,
      "b340": 5330,
      "d408": 5331,
      "02a1": 5332,
      "01fd": 5333,
      "0653": 5334,
      "0d08": 5335,
      "##11c": 5336,
      "##144": 5337,
      "##d3e": 5338,
      "0579": 5339,
      "1161": 5340,
      "d108": 5341,
      "8608": 5342,
      "4508": 5343,
      "6b4": 5344,
      "a540": 5345,
      "02f3": 5346,
      "01fc": 5347,
      "0350": 5348,
      "##296": 5349,
      "##932": 5350,
      "##b82": 5351,
      "##b9e": 5352,
      "##2ce": 5353,
      "cb40": 5354,
      "a208": 5355,
      "1f08": 5356,
      "f08e": 5357,
      "ba08": 5358,
      "a640": 5359,
      "d740": 5360,
      "5008": 5361,
      "0c09": 5362,
      "c0c": 5363,
      "c508": 5364,
      "##6dc": 5365,
      "##c30": 5366,
      "##c3a": 5367,
      "8d08": 5368,
      "d440": 5369,
      "d040": 5370,
      "4a08": 5371,
      "d608": 5372,
      "3408": 5373,
      "5b4": 5374,
      "aece": 5375,
      "c540": 5376,
      "e340": 5377,
      "02ee": 5378,
      "##758": 5379,
      "##b3a": 5380,
      "48ea": 5381,
      "##7b4": 5382,
      "##25e": 5383,
      "c308": 5384,
      "ed08": 5385,
      "a440": 5386,
      "c608": 5387,
      "2e08": 5388,
      "9208": 5389,
      "4e7": 5390,
      "560": 5391,
      "6ad": 5392,
      "##d93": 5393,
      "##d9b": 5394,
      "##b8b": 5395,
      "8f08": 5396,
      "5608": 5397,
      "f140": 5398,
      "1c08": 5399,
      "9bc": 5400,
      "ccc": 5401,
      "eb4": 5402,
      "##ffb": 5403,
      "##ff6": 5404,
      "8008": 5405,
      "##e48": 5406,
      "##b3f": 5407,
      "##987": 5408,
      "8c08": 5409,
      "9ad": 5410,
      "a508": 5411,
      "e008": 5412,
      "0696": 5413,
      "##b3b": 5414,
      "488d": 5415,
      "##d92": 5416,
      "##98a": 5417,
      "##2ca": 5418,
      "5908": 5419,
      "ed40": 5420,
      "3d08": 5421,
      "cc40": 5422,
      "dc40": 5423,
      "##95a": 5424,
      "6f08": 5425,
      "d240": 5426,
      "6708": 5427,
      "fbc": 5428,
      "f011": 5429,
      "0285": 5430,
      "##afe": 5431,
      "##14a": 5432,
      "##206": 5433,
      "##d33": 5434,
      "##a4b": 5435,
      "##33e": 5436,
      "##2c4": 5437,
      "2208": 5438,
      "c740": 5439,
      "8908": 5440,
      "c908": 5441,
      "c240": 5442,
      "cf40": 5443,
      "ef4": 5444,
      "068b": 5445,
      "##80c": 5446,
      "2808": 5447,
      "##837": 5448,
      "##64e": 5449,
      "##538": 5450,
      "##b38": 5451,
      "##a4a": 5452,
      "##2c7": 5453,
      "ec40": 5454,
      "a840": 5455,
      "e908": 5456,
      "ca40": 5457,
      "a740": 5458,
      "0289": 5459,
      "0d50": 5460,
      "##83f": 5461,
      "##292": 5462,
      "##c32": 5463,
      "6d08": 5464,
      "8308": 5465,
      "ac40": 5466,
      "aa40": 5467,
      "8e08": 5468,
      "388": 5469,
      "5408": 5470,
      "02c1": 5471,
      "##642": 5472,
      "##53b": 5473,
      "48ab": 5474,
      "7308": 5475,
      "6008": 5476,
      "5b08": 5477,
      "eb40": 5478,
      "8208": 5479,
      "9608": 5480,
      "ae08": 5481,
      "7708": 5482,
      "8708": 5483,
      "4108": 5484,
      "7e08": 5485,
      "58c": 5486,
      "5508": 5487,
      "c340": 5488,
      "0603": 5489,
      "##142": 5490,
      "##c3f": 5491,
      "19f0": 5492,
      "##2d7": 5493,
      "##b56": 5494,
      "7608": 5495,
      "3b08": 5496,
      "c040": 5497,
      "db08": 5498,
      "df08": 5499,
      "5e08": 5500,
      "0935": 5501,
      "a340": 5502,
      "d508": 5503,
      "0251": 5504,
      "064e": 5505,
      "5208": 5506,
      "10a1": 5507,
      "d908": 5508,
      "##532": 5509,
      "##a47": 5510,
      "##9d8": 5511,
      "9908": 5512,
      "##ffa": 5513,
      "066b": 5514,
      "##83e": 5515,
      "c808": 5516,
      "##2de": 5517,
      "7a08": 5518,
      "##556": 5519,
      "a240": 5520,
      "3a08": 5521,
      "aa08": 5522,
      "1e08": 5523,
      "a408": 5524,
      "f8c": 5525,
      "f540": 5526,
      "06dc": 5527,
      "##52a": 5528,
      "##64f": 5529,
      "4808": 5530,
      "##d4f": 5531,
      "##d4b": 5532,
      "b808": 5533,
      "##9de": 5534,
      "f808": 5535,
      "f908": 5536,
      "bf40": 5537,
      "2c08": 5538,
      "9cc": 5539,
      "bcc": 5540,
      "020e": 5541,
      "06f6": 5542,
      "##530": 5543,
      "1908": 5544,
      "##8a7": 5545,
      "1d08": 5546,
      "fd08": 5547,
      "bd08": 5548,
      "a040": 5549,
      "4208": 5550,
      "4708": 5551,
      "1d4c": 5552,
      "2bc": 5553,
      "bc08": 5554,
      "0a08": 5555,
      "0207": 5556,
      "0365": 5557,
      "0d2f": 5558,
      "0708": 5559,
      "3808": 5560,
      "9f40": 5561,
      "f708": 5562,
      "0d3a": 5563,
      "c408": 5564,
      "f60": 5565,
      "0257": 5566,
      "020b": 5567,
      "0656": 5568,
      "2708": 5569,
      "0b08": 5570,
      "1b5a": 5571,
      "4d08": 5572,
      "1308": 5573,
      "2908": 5574,
      "7d08": 5575,
      "1108": 5576,
      "7808": 5577,
      "c640": 5578,
      "ea40": 5579,
      "1a08": 5580,
      "11ba": 5581,
      "9e40": 5582,
      "1e46": 5583,
      "0b3d": 5584,
      "2011": 5585,
      "6c08": 5586,
      "7008": 5587,
      "0205": 5588,
      "##b3e": 5589,
      "488f": 5590,
      "6808": 5591,
      "##2c2": 5592,
      "9840": 5593,
      "##2d8": 5594,
      "4b08": 5595,
      "##956": 5596,
      "1708": 5597,
      "76ff": 5598,
      "9940": 5599,
      "ce08": 5600,
      "b708": 5601,
      "ef08": 5602,
      "3008": 5603,
      "2cc": 5604,
      "7408": 5605,
      "acc": 5606,
      "0633": 5607,
      "b408": 5608,
      "##53a": 5609,
      "##2c6": 5610,
      "##9d0": 5611,
      "7b08": 5612,
      "fe08": 5613,
      "de08": 5614,
      "9108": 5615,
      "0221": 5616,
      "0a40": 5617,
      "0203": 5618,
      "0f48": 5619,
      "1063": 5620,
      "0d5c": 5621,
      "f0c3": 5622,
      "##832": 5623,
      "##b37": 5624,
      "0b21": 5625,
      "4308": 5626,
      "9308": 5627,
      "bd50": 5628,
      "9f08": 5629,
      "ef40": 5630,
      "0235": 5631,
      "ee40": 5632,
      "e408": 5633,
      "020d": 5634,
      "0f08": 5635,
      "06ec": 5636,
      "f064": 5637,
      "f0ce": 5638,
      "##1ca": 5639,
      "##44a": 5640,
      "5d08": 5641,
      "##2da": 5642,
      "##55f": 5643,
      "9a08": 5644,
      "2a08": 5645,
      "e608": 5646,
      "af08": 5647,
      "e108": 5648,
      "c108": 5649,
      "be08": 5650,
      "0edd": 5651,
      "860": 5652,
      "0269": 5653,
      "0215": 5654,
      "0209": 5655,
      "0699": 5656,
      "##830": 5657,
      "##533": 5658,
      "##b32": 5659,
      "0513": 5660,
      "2b08": 5661,
      "9a40": 5662,
      "3708": 5663,
      "bf08": 5664,
      "b108": 5665,
      "5708": 5666,
      "5f08": 5667,
      "660": 5668,
      "8b4": 5669,
      "ac08": 5670,
      "06fc": 5671,
      "5202": 5672,
      "##644": 5673,
      "9c40": 5674,
      "##997": 5675,
      "##992": 5676,
      "##bda": 5677,
      "a808": 5678,
      "##2d0": 5679,
      "c708": 5680,
      "0e11": 5681,
      "85aa": 5682,
      "da08": 5683,
      "0802": 5684,
      "bb08": 5685,
      "f040": 5686,
      "f036": 5687,
      "0c36": 5688,
      "0cda": 5689,
      "##c3b": 5690,
      "9d50": 5691,
      "d308": 5692,
      "0ee2": 5693,
      "3040": 5694,
      "5a08": 5695,
      "d008": 5696,
      "023f": 5697,
      "0781": 5698,
      "b550": 5699,
      "e508": 5700,
      "0284": 5701,
      "0a33": 5702,
      "0d9a": 5703,
      "f049": 5704,
      "0ceb": 5705,
      "##d4a": 5706,
      "##bde": 5707,
      "e308": 5708,
      "6908": 5709,
      "c208": 5710,
      "b608": 5711,
      "4e08": 5712,
      "2608": 5713,
      "0231": 5714,
      "0eb5": 5715,
      "7c08": 5716,
      "f508": 5717,
      "6c7c": 5718,
      "f308": 5719,
      "07a9": 5720,
      "b308": 5721,
      "##b5a": 5722,
      "ea08": 5723,
      "b208": 5724,
      "2f08": 5725,
      "020c": 5726,
      "0391": 5727,
      "0c4d": 5728,
      "05fb": 5729,
      "f440": 5730,
      "eb08": 5731,
      "2408": 5732,
      "024d": 5733,
      "3508": 5734,
      "0c25": 5735,
      "098f": 5736,
      "6308": 5737,
      "##2df": 5738,
      "##95f": 5739,
      "5808": 5740,
      "4f08": 5741,
      "062b": 5742,
      "0db1": 5743,
      "0d8f": 5744,
      "0ef9": 5745,
      "3908": 5746,
      "f108": 5747,
      "6608": 5748,
      "f00e": 5749,
      "0831": 5750,
      "3c08": 5751,
      "6408": 5752,
      "##1cc": 5753,
      "0951": 5754,
      "48f1": 5755,
      "0bae": 5756,
      "ad08": 5757,
      "1350": 5758,
      "4408": 5759,
      "##bd8": 5760,
      "acda": 5761,
      "f240": 5762,
      "7f08": 5763,
      "6e08": 5764,
      "a608": 5765,
      "023e": 5766,
      "7108": 5767,
      "3e08": 5768,
      "9508": 5769,
      "1040": 5770,
      "f09d": 5771,
      "0ce5": 5772,
      "##53e": 5773,
      "cd08": 5774,
      "a308": 5775,
      "ca08": 5776,
      "f640": 5777,
      "1cc": 5778,
      "8508": 5779,
      "f340": 5780,
      "0210": 5781,
      "0a66": 5782,
      "1808": 5783,
      "0375": 5784,
      "0d95": 5785,
      "f052": 5786,
      "f0ec": 5787,
      "f0d2": 5788,
      "0c85": 5789,
      "0b65": 5790,
      "##bdf": 5791,
      "0710": 5792,
      "fd40": 5793,
      "5308": 5794,
      "3108": 5795,
      "d708": 5796,
      "9e08": 5797,
      "0535": 5798,
      "8408": 5799,
      "f008": 5800,
      "02d4": 5801,
      "02b9": 5802,
      "067b": 5803,
      "4008": 5804,
      "5014": 5805,
      "1036": 5806,
      "032b": 5807,
      "0c74": 5808,
      "0995": 5809,
      "0b9d": 5810,
      "0740": 5811,
      "9b08": 5812,
      "9740": 5813,
      "9540": 5814,
      "0296": 5815,
      "0d6d": 5816,
      "0d18": 5817,
      "0d07": 5818,
      "f021": 5819,
      "0c41": 5820,
      "09a0": 5821,
      "08ad": 5822,
      "##55a": 5823,
      "0e40": 5824,
      "cf08": 5825,
      "8108": 5826,
      "a708": 5827,
      "033d": 5828,
      "2008": 5829,
      "07b4": 5830,
      "0ea4": 5831,
      "1e99": 5832,
      "0727": 5833,
      "2508": 5834,
      "988": 5835,
      "a008": 5836,
      "02af": 5837,
      "0283": 5838,
      "02e0": 5839,
      "02ef": 5840,
      "02f7": 5841,
      "0a99": 5842,
      "0f5f": 5843,
      "0306": 5844,
      "0d01": 5845,
      "0def": 5846,
      "f045": 5847,
      "0cc9": 5848,
      "0b4e": 5849,
      "20ed": 5850,
      "##9df": 5851,
      "##2d6": 5852,
      "e208": 5853,
      "d003": 5854,
      "0d35": 5855,
      "b508": 5856,
      "f408": 5857,
      "0211": 5858,
      "0219": 5859,
      "02b2": 5860,
      "02d1": 5861,
      "0ac1": 5862,
      "06f3": 5863,
      "030e": 5864,
      "0d4b": 5865,
      "f05b": 5866,
      "f04a": 5867,
      "0c52": 5868,
      "0b2c": 5869,
      "##9d7": 5870,
      "7208": 5871,
      "f0aa": 5872,
      "07d6": 5873,
      "0e55": 5874,
      "1d9f": 5875,
      "1508": 5876,
      "6508": 5877,
      "0212": 5878,
      "0213": 5879,
      "02d6": 5880,
      "02d7": 5881,
      "02c8": 5882,
      "0f7b": 5883,
      "0df5": 5884,
      "0c14": 5885,
      "090d": 5886,
      "09fb": 5887,
      "0bd0": 5888,
      "0491": 5889,
      "0840": 5890,
      "fcdf": 5891,
      "100e": 5892,
      "07ba": 5893,
      "0241": 5894,
      "0242": 5895,
      "02ce": 5896,
      "0a77": 5897,
      "0619": 5898,
      "0685": 5899,
      "05b7": 5900,
      "f0c1": 5901,
      "091e": 5902,
      "08b3": 5903,
      "a908": 5904,
      "e708": 5905,
      "f081": 5906,
      "f608": 5907,
      "5108": 5908,
      "0836": 5909,
      "08c9": 5910,
      "4c02": 5911,
      "5c08": 5912,
      "02c0": 5913,
      "0ae8": 5914,
      "0d13": 5915,
      "0dd3": 5916,
      "0da0": 5917,
      "0c63": 5918,
      "09d3": 5919,
      "05f5": 5920,
      "##bd2": 5921,
      "##bdb": 5922,
      "4908": 5923,
      "ab08": 5924,
      "cc08": 5925,
      "d550": 5926,
      "02fa": 5927,
      "02ec": 5928,
      "0229": 5929,
      "0217": 5930,
      "02fb": 5931,
      "02a5": 5932,
      "0299": 5933,
      "0292": 5934,
      "0fbf": 5935,
      "061a": 5936,
      "1085": 5937,
      "0355": 5938,
      "0de4": 5939,
      "0d24": 5940,
      "0dd9": 5941,
      "0c40": 5942,
      "48a6": 5943,
      "1b08": 5944,
      "7d40": 5945,
      "1140": 5946,
      "f940": 5947,
      "2d08": 5948,
      "7140": 5949,
      "1002": 5950,
      "08da": 5951,
      "07a3": 5952,
      "9008": 5953,
      "02e8": 5954,
      "02eb": 5955,
      "0293": 5956,
      "0290": 5957,
      "02cf": 5958,
      "02da": 5959,
      "02c2": 5960,
      "0a6c": 5961,
      "0f4e": 5962,
      "0d1e": 5963,
      "f0e4": 5964,
      "097e": 5965,
      "0b81": 5966,
      "ed3c": 5967,
      "5802": 5968,
      "0268": 5969,
      "0274": 5970,
      "0218": 5971,
      "02b1": 5972,
      "0291": 5973,
      "02ba": 5974,
      "02db": 5975,
      "0abb": 5976,
      "0af9": 5977,
      "0f9d": 5978,
      "030f": 5979,
      "0d0d": 5980,
      "0cb8": 5981,
      "0bd6": 5982,
      "048b": 5983,
      "082b": 5984,
      "8808": 5985,
      "2517": 5986,
      "6108": 5987,
      "f740": 5988,
      "9140": 5989,
      "1741": 5990,
      "07c5": 5991,
      "0705": 5992,
      "6540": 5993,
      "0252": 5994,
      "02e9": 5995,
      "0214": 5996,
      "022d": 5997,
      "0f1b": 5998,
      "06f5": 5999,
      "0dbc": 6000,
      "f0e2": 6001,
      "f0cb": 6002,
      "0cd4": 6003,
      "0968": 6004,
      "4801": 6005,
      "04e0": 6006,
      "084d": 6007,
      "05ac": 6008,
      "7b40": 6009,
      "0e71": 6010,
      "0402": 6011,
      "0e99": 6012,
      "0546": 6013,
      "1770": 6014,
      "02ad": 6015,
      "0273": 6016,
      "021d": 6017,
      "02d9": 6018,
      "0216": 6019,
      "024c": 6020,
      "029d": 6021,
      "02a6": 6022,
      "028f": 6023,
      "0a88": 6024,
      "0aee": 6025,
      "0695": 6026,
      "0be1": 6027,
      "0b5f": 6028,
      "0847": 6029,
      "1c52": 6030,
      "6a08": 6031,
      "8940": 6032,
      "9640": 6033,
      "0238": 6034,
      "1009": 6035,
      "1014": 6036,
      "0e88": 6037,
      "075f": 6038,
      "1a50": 6039,
      "025c": 6040,
      "02dc": 6041,
      "02a3": 6042,
      "0226": 6043,
      "0288": 6044,
      "02f1": 6045,
      "0295": 6046,
      "0a28": 6047,
      "0371": 6048,
      "0913": 6049,
      "0b92": 6050,
      "08e0": 6051,
      "##bd0": 6052,
      "##bd7": 6053,
      "ed50": 6054,
      "##9db": 6055,
      "fa40": 6056,
      "3940": 6057,
      "0bbf": 6058,
      "0a39": 6059,
      "0c3c": 6060,
      "0946": 6061,
      "2540": 6062,
      "028c": 6063,
      "02f5": 6064,
      "02a8": 6065,
      "0261": 6066,
      "02fd": 6067,
      "0249": 6068,
      "0247": 6069,
      "02df": 6070,
      "02d8": 6071,
      "02c4": 6072,
      "0fec": 6073,
      "0f15": 6074,
      "030a": 6075,
      "0368": 6076,
      "0c7a": 6077,
      "0ba3": 6078,
      "0b05": 6079,
      "0557": 6080,
      "3d40": 6081,
      "0e22": 6082,
      "3f08": 6083,
      "5701": 6084,
      "0e06": 6085,
      "1540": 6086,
      "676f": 6087,
      "9408": 6088,
      "0260": 6089,
      "027d": 6090,
      "02e4": 6091,
      "0276": 6092,
      "026e": 6093,
      "022b": 6094,
      "0281": 6095,
      "02b5": 6096,
      "022f": 6097,
      "0acc": 6098,
      "0fa3": 6099,
      "0f81": 6100,
      "0351": 6101,
      "0d7e": 6102,
      "0cc3": 6103,
      "09f5": 6104,
      "0962": 6105,
      "0b1b": 6106,
      "1d40": 6107,
      "2940": 6108,
      "##bd6": 6109,
      "0754": 6110,
      "07ed": 6111,
      "a316": 6112,
      "7940": 6113,
      "4940": 6114,
      "9240": 6115,
      "6661": 6116,
      "0237": 6117,
      "5140": 6118,
      "ae36": 6119,
      "0294": 6120,
      "021a": 6121,
      "02d3": 6122,
      "02e6": 6123,
      "0233": 6124,
      "02f6": 6125,
      "0282": 6126,
      "02c9": 6127,
      "02ca": 6128,
      "0fe1": 6129,
      "e550": 6130,
      "10b2": 6131,
      "1047": 6132,
      "031c": 6133,
      "0d51": 6134,
      "48b2": 6135,
      "0825": 6136,
      "0562": 6137,
      "3d50": 6138,
      "f840": 6139,
      "1772": 6140,
      "3140": 6141,
      "09c2": 6142,
      "174c": 6143,
      "0502": 6144,
      "0550": 6145,
      "1a5f": 6146,
      "3540": 6147,
      "5540": 6148,
      "02bb": 6149,
      "02a4": 6150,
      "02dd": 6151,
      "02aa": 6152,
      "022c": 6153,
      "02bd": 6154,
      "0227": 6155,
      "025a": 6156,
      "02d0": 6157,
      "02cd": 6158,
      "02c5": 6159,
      "02de": 6160,
      "0a7d": 6161,
      "0a1f": 6162,
      "0a9f": 6163,
      "0672": 6164,
      "031d": 6165,
      "0359": 6166,
      "0325": 6167,
      "032d": 6168,
      "0321": 6169,
      "0336": 6170,
      "0305": 6171,
      "0c9c": 6172,
      "0ca7": 6173,
      "092f": 6174,
      "04cf": 6175,
      "0776": 6176,
      "6174": 6177,
      "0ee8": 6178,
      "d208": 6179,
      "7e40": 6180,
      "0339": 6181,
      "0798": 6182,
      "0792": 6183,
      "0ec6": 6184,
      "0721": 6185,
      "4539": 6186,
      "6170": 6187,
      "9340": 6188,
      "0254": 6189,
      "02e7": 6190,
      "0253": 6191,
      "0224": 6192,
      "02ea": 6193,
      "0225": 6194,
      "02e1": 6195,
      "0228": 6196,
      "0255": 6197,
      "02fe": 6198,
      "029e": 6199,
      "0aff": 6200,
      "0a06": 6201,
      "0f59": 6202,
      "06ee": 6203,
      "0697": 6204,
      "1090": 6205,
      "2817": 6206,
      "0d73": 6207,
      "0dc2": 6208,
      "0dde": 6209,
      "095c": 6210,
      "09ef": 6211,
      "0bf2": 6212,
      "5940": 6213,
      "7440": 6214,
      "6b08": 6215,
      "##2d2": 6216,
      "6940": 6217,
      "9040": 6218,
      "6176": 6219,
      "2d40": 6220,
      "2140": 6221,
      "0348": 6222,
      "0e39": 6223,
      "08cf": 6224,
      "0eee": 6225,
      "a550": 6226,
      "ea0b": 6227,
      "02e5": 6228,
      "0275": 6229,
      "026c": 6230,
      "021f": 6231,
      "026a": 6232,
      "027a": 6233,
      "02f4": 6234,
      "02f8": 6235,
      "02f0": 6236,
      "027e": 6237,
      "02b6": 6238,
      "025f": 6239,
      "0236": 6240,
      "0a55": 6241,
      "0f40": 6242,
      "0fdb": 6243,
      "0647": 6244,
      "1052": 6245,
      "1096": 6246,
      "18f9": 6247,
      "0329": 6248,
      "0dcd": 6249,
      "f09a": 6250,
      "0cad": 6251,
      "0814": 6252,
      "8d40": 6253,
      "0573": 6254,
      "2b17": 6255,
      "3c01": 6256,
      "6140": 6257,
      "6f72": 6258,
      "4540": 6259,
      "8140": 6260,
      "9708": 6261,
      "0239": 6262,
      "023c": 6263,
      "033c": 6264,
      "0e33": 6265,
      "0f3d": 6266,
      "2f49": 6267,
      "0584": 6268,
      "8540": 6269,
      "afc8": 6270,
      "021b": 6271,
      "026f": 6272,
      "02ed": 6273,
      "0262": 6274,
      "02a0": 6275,
      "02b4": 6276,
      "022a": 6277,
      "02ae": 6278,
      "0286": 6279,
      "0248": 6280,
      "02d5": 6281,
      "02c6": 6282,
      "0a0a": 6283,
      "0fc5": 6284,
      "032c": 6285,
      "0db7": 6286,
      "0cfc": 6287,
      "4d40": 6288,
      "1c40": 6289,
      "5c50": 6290,
      "1440": 6291,
      "##bfe": 6292,
      "8840": 6293,
      "fb40": 6294,
      "0e17": 6295,
      "cb01": 6296,
      "6208": 6297,
      "0345": 6298,
      "023d": 6299,
      "1340": 6300,
      "1747": 6301,
      "7340": 6302,
      "026b": 6303,
      "025d": 6304,
      "021c": 6305,
      "0279": 6306,
      "0272": 6307,
      "0243": 6308,
      "02bf": 6309,
      "028e": 6310,
      "024f": 6311,
      "024a": 6312,
      "0add": 6313,
      "0f8c": 6314,
      "0f26": 6315,
      "1041": 6316,
      "0310": 6317,
      "036b": 6318,
      "0369": 6319,
      "0324": 6320,
      "031a": 6321,
      "0327": 6322,
      "f0e9": 6323,
      "1240": 6324,
      "0919": 6325,
      "0b10": 6326,
      "087a": 6327,
      "08fc": 6328,
      "6d40": 6329,
      "7461": 6330,
      "7350": 6331,
      "6963": 6332,
      "6040": 6333,
      "3a40": 6334,
      "0331": 6335,
      "3e40": 6336,
      "4602": 6337,
      "0595": 6338,
      "07fe": 6339,
      "025b": 6340,
      "0280": 6341,
      "029c": 6342,
      "0259": 6343,
      "0277": 6344,
      "02fc": 6345,
      "02f2": 6346,
      "0258": 6347,
      "0244": 6348,
      "0271": 6349,
      "022e": 6350,
      "02a7": 6351,
      "0a4a": 6352,
      "1069": 6353,
      "10a7": 6354,
      "0376": 6355,
      "0314": 6356,
      "0307": 6357,
      "09e4": 6358,
      "0b40": 6359,
      "0be7": 6360,
      "04a2": 6361,
      "04be": 6362,
      "0858": 6363,
      "08f1": 6364,
      "##8a6": 6365,
      "07f8": 6366,
      "0716": 6367,
      "8040": 6368,
      "9440": 6369,
      "2f40": 6370,
      "023a": 6371,
      "0524": 6372,
      "05ce": 6373,
      "0e28": 6374,
      "8e03": 6375,
      "02a9": 6376,
      "02e3": 6377,
      "02f9": 6378,
      "02c3": 6379,
      "02cc": 6380,
      "021e": 6381,
      "10ad": 6382,
      "1081": 6383,
      "038d": 6384,
      "036a": 6385,
      "035a": 6386,
      "0c47": 6387,
      "096d": 6388,
      "04f1": 6389,
      "fc40": 6390,
      "fd50": 6391,
      "7a40": 6392,
      "c015": 6393,
      "4040": 6394,
      "2a40": 6395,
      "fe40": 6396,
      "1640": 6397,
      "6740": 6398,
      "034b": 6399,
      "034d": 6400,
      "023b": 6401,
      "0330": 6402,
      "100a": 6403,
      "0c03": 6404,
      "1030": 6405,
      "0eaa": 6406,
      "083c": 6407,
      "0732": 6408,
      "6b33": 6409,
      "7540": 6410,
      "9203": 6411,
      "027c": 6412,
      "02e2": 6413,
      "027b": 6414,
      "02ab": 6415,
      "024e": 6416,
      "02b7": 6417,
      "029f": 6418,
      "02c7": 6419,
      "0a8e": 6420,
      "0f92": 6421,
      "2340": 6422,
      "064f": 6423,
      "0364": 6424,
      "036d": 6425,
      "0357": 6426,
      "0367": 6427,
      "0309": 6428,
      "030b": 6429,
      "0dab": 6430,
      "09b1": 6431,
      "04ad": 6432,
      "0880": 6433,
      "2040": 6434,
      "5d40": 6435,
      "1162": 6436,
      "3840": 6437,
      "c450": 6438,
      "8240": 6439,
      "0e77": 6440,
      "0344": 6441,
      "0341": 6442,
      "0232": 6443,
      "0335": 6444,
      "2048": 6445,
      "0bb4": 6446,
      "0ec1": 6447,
      "0743": 6448,
      "0e82": 6449,
      "07cb": 6450,
      "02b3": 6451,
      "02b8": 6452,
      "027f": 6453,
      "0266": 6454,
      "0256": 6455,
      "02be": 6456,
      "0a5b": 6457,
      "0a0c": 6458,
      "0312": 6459,
      "0360": 6460,
      "0319": 6461,
      "0304": 6462,
      "030d": 6463,
      "0315": 6464,
      "0363": 6465,
      "037a": 6466,
      "0d84": 6467,
      "0cf1": 6468,
      "4875": 6469,
      "049c": 6470,
      "04e6": 6471,
      "8c40": 6472,
      "2240": 6473,
      "07e7": 6474,
      "07f2": 6475,
      "2c40": 6476,
      "7f40": 6477,
      "2640": 6478,
      "4140": 6479,
      "0347": 6480,
      "0349": 6481,
      "033b": 6482,
      "0e44": 6483,
      "0f37": 6484,
      "05d9": 6485,
      "0ecc": 6486,
      "6550": 6487,
      "6f2f": 6488,
      "776f": 6489,
      "028d": 6490,
      "0264": 6491,
      "0245": 6492,
      "0287": 6493,
      "0f70": 6494,
      "0f2c": 6495,
      "035b": 6496,
      "0389": 6497,
      "0353": 6498,
      "0320": 6499,
      "0316": 6500,
      "0356": 6501,
      "04f7": 6502,
      "085e": 6503,
      "3640": 6504,
      "7040": 6505,
      "0ebb": 6506,
      "7240": 6507,
      "7669": 6508,
      "2f67": 6509,
      "2f66": 6510,
      "5640": 6511,
      "040b": 6512,
      "0342": 6513,
      "0230": 6514,
      "0337": 6515,
      "072c": 6516,
      "04d5": 6517,
      "3943": 6518,
      "8340": 6519,
      "0265": 6520,
      "0267": 6521,
      "0297": 6522,
      "02cb": 6523,
      "0a61": 6524,
      "0ad7": 6525,
      "0f6a": 6526,
      "1840": 6527,
      "0354": 6528,
      "0352": 6529,
      "0311": 6530,
      "0322": 6531,
      "0374": 6532,
      "031f": 6533,
      "0361": 6534,
      "0333": 6535,
      "032f": 6536,
      "0d62": 6537,
      "0c96": 6538,
      "0973": 6539,
      "09ac": 6540,
      "0b8c": 6541,
      "0bed": 6542,
      "08be": 6543,
      "1940": 6544,
      "1965": 6545,
      "6d50": 6546,
      "2450": 6547,
      "8b40": 6548,
      "8f40": 6549,
      "1e40": 6550,
      "2f20": 6551,
      "3f40": 6552,
      "033a": 6553,
      "0ff2": 6554,
      "0ffd": 6555,
      "074e": 6556,
      "0263": 6557,
      "029b": 6558,
      "028a": 6559,
      "028b": 6560,
      "0aaa": 6561,
      "0f10": 6562,
      "7c40": 6563,
      "0383": 6564,
      "03a9": 6565,
      "030c": 6566,
      "036f": 6567,
      "0318": 6568,
      "031e": 6569,
      "0326": 6570,
      "032a": 6571,
      "0366": 6572,
      "2840": 6573,
      "0924": 6574,
      "0b76": 6575,
      "5040": 6576,
      "04b3": 6577,
      "1b40": 6578,
      "6c40": 6579,
      "2440": 6580,
      "7361": 6581,
      "436f": 6582,
      "726c": 6583,
      "5a40": 6584,
      "4740": 6585,
      "6640": 6586,
      "8640": 6587,
      "0407": 6588,
      "0343": 6589,
      "034e": 6590,
      "033e": 6591,
      "8e40": 6592,
      "111e": 6593,
      "0ed7": 6594,
      "0bb5": 6595,
      "1744": 6596,
      "0278": 6597,
      "029a": 6598,
      "02d2": 6599,
      "0ad2": 6600,
      "06b9": 6601,
      "0323": 6602,
      "0313": 6603,
      "035d": 6604,
      "0379": 6605,
      "0372": 6606,
      "0362": 6607,
      "0cbe": 6608,
      "098a": 6609,
      "0984": 6610,
      "0568": 6611,
      "07e1": 6612,
      "8440": 6613,
      "0eff": 6614,
      "642f": 6615,
      "2e01": 6616,
      "8a40": 6617,
      "6e40": 6618,
      "5ae0": 6619,
      "034f": 6620,
      "0338": 6621,
      "0332": 6622,
      "0891": 6623,
      "073d": 6624,
      "5340": 6625,
      "0a44": 6626,
      "0ac6": 6627,
      "0f21": 6628,
      "0fd0": 6629,
      "5240": 6630,
      "036c": 6631,
      "035c": 6632,
      "0358": 6633,
      "0328": 6634,
      "035e": 6635,
      "032e": 6636,
      "035f": 6637,
      "0302": 6638,
      "0d68": 6639,
      "0d46": 6640,
      "0d02": 6641,
      "0ce0": 6642,
      "48e9": 6643,
      "4851": 6644,
      "0b6a": 6645,
      "0b70": 6646,
      "081a": 6647,
      "08a7": 6648,
      "051e": 6649,
      "05a6": 6650,
      "0551": 6651,
      "07af": 6652,
      "4b40": 6653,
      "3440": 6654,
      "3417": 6655,
      "4a40": 6656,
      "4340": 6657,
      "8740": 6658,
      "0b32": 6659,
      "1f93": 6660,
      "e036": 6661,
      "6340": 6662,
      "02b0": 6663,
      "024b": 6664,
      "065b": 6665,
      "0668": 6666,
      "107f": 6667,
      "108b": 6668,
      "05b1": 6669,
      "037d": 6670,
      "0317": 6671,
      "0378": 6672,
      "099b": 6673,
      "6840": 6674,
      "1b59": 6675,
      "5440": 6676,
      "05ea": 6677,
      "071b": 6678,
      "6b40": 6679,
      "3740": 6680,
      "4f40": 6681,
      "5f40": 6682,
      "034c": 6683,
      "033f": 6684,
      "0896": 6685,
      "0749": 6686,
      "059b": 6687,
      "7002": 6688,
      "0765": 6689,
      "0e66": 6690,
      "0aa4": 6691,
      "0ab5": 6692,
      "031b": 6693,
      "0373": 6694,
      "0377": 6695,
      "0370": 6696,
      "0381": 6697,
      "09d9": 6698,
      "086f": 6699,
      "088b": 6700,
      "5c40": 6701,
      "5b40": 6702,
      "5e40": 6703,
      "0346": 6704,
      "09c8": 6705,
      "0e93": 6706,
      "5550": 6707,
      "025e": 6708,
      "0a17": 6709,
      "1074": 6710,
      "10b8": 6711,
      "037b": 6712,
      "0d57": 6713,
      "0cf6": 6714,
      "0c8b": 6715,
      "09a6": 6716,
      "488e": 6717,
      "0b54": 6718,
      "0ba9": 6719,
      "0475": 6720,
      "3c40": 6721,
      "4c40": 6722,
      "5840": 6723,
      "2e40": 6724,
      "1a40": 6725,
      "6240": 6726,
      "7740": 6727,
      "5740": 6728,
      "034a": 6729,
      "052f": 6730,
      "037e": 6731,
      "0df1": 6732,
      "0c58": 6733,
      "0902": 6734,
      "0440": 6735,
      "08eb": 6736,
      "2b40": 6737,
      "7640": 6738,
      "101f": 6739,
      "05d3": 6740,
      "0e5b": 6741,
      "0787": 6742,
      "3340": 6743,
      "0f43": 6744,
      "0382": 6745,
      "038b": 6746,
      "0b87": 6747,
      "07c0": 6748,
      "6a40": 6749,
      "7840": 6750,
      "6440": 6751,
      "c55e": 6752,
      "2f77": 6753,
      "489f": 6754,
      "4891": 6755,
      "07dc": 6756,
      "0a3f": 6757,
      "094b": 6758,
      "0fca": 6759,
      "105d": 6760,
      "037c": 6761,
      "099a": 6762,
      "4840": 6763,
      "0885": 6764,
      "0519": 6765,
      "4440": 6766,
      "0e6c": 6767,
      "0ef3": 6768,
      "1740": 6769,
      "4e40": 6770,
      "4640": 6771,
      "1003": 6772,
      "075a": 6773,
      "0ab0": 6774,
      "0f04": 6775,
      "0380": 6776,
      "0385": 6777,
      "4868": 6778,
      "4855": 6779,
      "0b59": 6780,
      "0b7b": 6781,
      "4d50": 6782,
      "0e60": 6783,
      "7b50": 6784,
      "0738": 6785,
      "4831": 6786,
      "0a22": 6787,
      "2740": 6788,
      "0386": 6789,
      "0387": 6790,
      "0c1f": 6791,
      "09ea": 6792,
      "4829": 6793,
      "0b98": 6794,
      "3240": 6795,
      "6f40": 6796,
      "3b40": 6797,
      "0c0e": 6798,
      "054c": 6799,
      "733c": 6800,
      "0a11": 6801,
      "0fae": 6802,
      "0dea": 6803,
      "0d45": 6804,
      "0979": 6805,
      "485c": 6806,
      "0b16": 6807,
      "08b8": 6808,
      "05a1": 6809,
      "1c50": 6810,
      "7373": 6811,
      "32e5": 6812,
      "d450": 6813,
      "e211": 6814,
      "0c02": 6815,
      "0e3e": 6816,
      "0e4f": 6817,
      "0804": 6818,
      "0590": 6819,
      "0fe7": 6820,
      "0fa8": 6821,
      "0fb9": 6822,
      "109c": 6823,
      "0388": 6824,
      "0384": 6825,
      "0d8d": 6826,
      "486b": 6827,
      "0b43": 6828,
      "0b27": 6829,
      "089c": 6830,
      "0e7d": 6831,
      "480d": 6832,
      "07d0": 6833,
      "09ce": 6834,
      "093a": 6835,
      "05df": 6836,
      "5f50": 6837,
      "5e27": 6838,
      "6efb": 6839,
      "da02": 6840,
      "fe02": 6841,
      "0a83": 6842,
      "0a2e": 6843,
      "0f97": 6844,
      "0698": 6845,
      "106e": 6846,
      "0394": 6847,
      "038a": 6848,
      "0d23": 6849,
      "0d1f": 6850,
      "0d78": 6851,
      "0d67": 6852,
      "0c6f": 6853,
      "0b48": 6854,
      "08e6": 6855,
      "05e4": 6856,
      "055d": 6857,
      "8c50": 6858,
      "e450": 6859,
      "0e1d": 6860,
      "2c50": 6861,
      "4240": 6862,
      "0e4a": 6863,
      "0f32": 6864,
      "05c8": 6865,
      "058a": 6866,
      "039b": 6867,
      "038e": 6868,
      "0c1a": 6869,
      "09b7": 6870,
      "08a2": 6871,
      "7550": 6872,
      "8350": 6873,
      "dc50": 6874,
      "a7f8": 6875,
      "0c30": 6876,
      "0a1d": 6877,
      "0ae3": 6878,
      "0390": 6879,
      "0d89": 6880,
      "0d2b": 6881,
      "4853": 6882,
      "0bf8": 6883,
      "05f0": 6884,
      "48cf": 6885,
      "0e9f": 6886,
      "6eee": 6887,
      "c750": 6888,
      "ee3d": 6889,
      "10c3": 6890,
      "05bd": 6891,
      "03ad": 6892,
      "0da6": 6893,
      "48e1": 6894,
      "078d": 6895,
      "6a01": 6896,
      "2b33": 6897,
      "f550": 6898,
      "0393": 6899,
      "039d": 6900,
      "0396": 6901,
      "0397": 6902,
      "0dc8": 6903,
      "0c80": 6904,
      "485d": 6905,
      "046f": 6906,
      "04a8": 6907,
      "8450": 6908,
      "c05a": 6909,
      "ce0a": 6910,
      "11b9": 6911,
      "0bba": 6912,
      "079e": 6913,
      "3632": 6914,
      "059a": 6915,
      "0f54": 6916,
      "0f76": 6917,
      "06bc": 6918,
      "107a": 6919,
      "1058": 6920,
      "0395": 6921,
      "039e": 6922,
      "48f9": 6923,
      "04fc": 6924,
      "077c": 6925,
      "366e": 6926,
      "1703": 6927,
      "b16e": 6928,
      "0d31": 6929,
      "48c4": 6930,
      "0e2d": 6931,
      "0803": 6932,
      "038c": 6933,
      "03a6": 6934,
      "039f": 6935,
      "0392": 6936,
      "0c5e": 6937,
      "04c4": 6938,
      "cc50": 6939,
      "2d50": 6940,
      "fe0a": 6941,
      "103c": 6942,
      "0e8e": 6943,
      "05c2": 6944,
      "0fb4": 6945,
      "7cae": 6946,
      "03a3": 6947,
      "0398": 6948,
      "03a1": 6949,
      "0399": 6950,
      "038f": 6951,
      "03a7": 6952,
      "0da1": 6953,
      "48bb": 6954,
      "4826": 6955,
      "0853": 6956,
      "f829": 6957,
      "f701": 6958,
      "4899": 6959,
      "101a": 6960,
      "da50": 6961,
      "d402": 6962,
      "0fd6": 6963,
      "06bd": 6964,
      "0c2b": 6965,
      "0820": 6966,
      "070a": 6967,
      "6101": 6968,
      "48ce": 6969,
      "0eb0": 6970,
      "4833": 6971,
      "06ef": 6972,
      "104c": 6973,
      "03a2": 6974,
      "039a": 6975,
      "0cb3": 6976,
      "0875": 6977,
      "ec01": 6978,
      "3dc0": 6979,
      "2c01": 6980,
      "0ff8": 6981,
      "080f": 6982,
      "052a": 6983,
      "2650": 6984,
      "03a5": 6985,
      "4882": 6986,
      "0bdc": 6987,
      "0486": 6988,
      "0864": 6989,
      "83f3": 6990,
      "1d59": 6991,
      "5350": 6992,
      "0e0c": 6993,
      "f159": 6994,
      "3202": 6995,
      "899a": 6996,
      "03a0": 6997,
      "03b0": 6998,
      "0d6c": 6999,
      "0d2e": 7000,
      "0bdb": 7001,
      "6c50": 7002,
      "3450": 7003,
      "9989": 7004,
      "0bcb": 7005,
      "ec02": 7006,
      "0a94": 7007,
      "48f4": 7008,
      "1d75": 7009,
      "1160": 7010,
      "ce02": 7011,
      "09cf": 7012,
      "053b": 7013,
      "8148": 7014,
      "1059": 7015,
      "039c": 7016,
      "03a8": 7017,
      "03ac": 7018,
      "03a4": 7019,
      "0d79": 7020,
      "39a1": 7021,
      "7677": 7022,
      "0ed2": 7023,
      "0ed1": 7024,
      "050d": 7025,
      "2f32": 7026,
      "0a72": 7027,
      "0604": 7028,
      "0657": 7029,
      "03ab": 7030,
      "4866": 7031,
      "047a": 7032,
      "19e2": 7033,
      "59e1": 7034,
      "ada1": 7035,
      "f877": 7036,
      "da0a": 7037,
      "418d": 7038,
      "08d5": 7039,
      "60c9": 7040,
      "59cd": 7041,
      "5522": 7042,
      "0929": 7043,
      "04b9": 7044,
      "4d4d": 7045,
      "9c8f": 7046,
      "a519": 7047,
      "89c0": 7048,
      "3c02": 7049,
      "0af4": 7050,
      "0f86": 7051,
      "092a": 7052,
      "4859": 7053,
      "4827": 7054,
      "08f7": 7055,
      "f3fd": 7056,
      "0632": 7057,
      "a210": 7058,
      "8fea": 7059,
      "079d": 7060,
      "0f8d": 7061,
      "062c": 7062,
      "0d72": 7063,
      "485b": 7064,
      "48eb": 7065,
      "5050": 7066,
      "0497": 7067,
      "fc50": 7068,
      "7676": 7069,
      "d58d": 7070,
      "1e9c": 7071,
      "5722": 7072,
      "0e27": 7073,
      "03aa": 7074,
      "0db9": 7075,
      "0c91": 7076,
      "48a3": 7077,
      "48aa": 7078,
      "4849": 7079,
      "0464": 7080,
      "0842": 7081,
      "fdf8": 7082,
      "df61": 7083,
      "480e": 7084,
      "09c4": 7085,
      "06be": 7086,
      "4002": 7087,
      "03ae": 7088,
      "0d36": 7089,
      "0c5d": 7090,
      "0cc5": 7091,
      "a99a": 7092,
      "4517": 7093,
      "78b0": 7094,
      "db50": 7095,
      "0401": 7096,
      "0f87": 7097,
      "0c90": 7098,
      "09bd": 7099,
      "4821": 7100,
      "4856": 7101,
      "0469": 7102,
      "0852": 7103,
      "056e": 7104,
      "076b": 7105,
      "26d9": 7106,
      "0f65": 7107,
      "d857": 7108,
      "0d85": 7109,
      "0db6": 7110,
      "0ca2": 7111,
      "8309": 7112,
      "##8ae": 7113,
      "e850": 7114,
      "c013": 7115,
      "e050": 7116,
      "abf5": 7117,
      "0a32": 7118,
      "08c4": 7119,
      "070b": 7120,
      "5dd8": 7121,
      "d529": 7122,
      "ee50": 7123,
      "03b4": 7124,
      "03c9": 7125,
      "0901": 7126,
      "0989": 7127,
      "0b50": 7128,
      "dd8d": 7129,
      "1d01": 7130,
      "5c78": 7131,
      "f82b": 7132,
      "615d": 7133,
      "721e": 7134,
      "5001": 7135,
      "0f31": 7136,
      "080e": 7137,
      "07ae": 7138,
      "1d91": 7139,
      "a1f1": 7140,
      "bd46": 7141,
      "0f19": 7142,
      "06f8": 7143,
      "03b9": 7144,
      "0d1b": 7145,
      "09bc": 7146,
      "0918": 7147,
      "044d": 7148,
      "ea83": 7149,
      "cf7a": 7150,
      "2f75": 7151,
      "a19a": 7152,
      "1e79": 7153,
      "2e51": 7154,
      "2350": 7155,
      "102b": 7156,
      "10be": 7157,
      "03b5": 7158,
      "03b1": 7159,
      "0dac": 7160,
      "0d61": 7161,
      "0dfb": 7162,
      "09b6": 7163,
      "48f5": 7164,
      "0b75": 7165,
      "04c9": 7166,
      "084e": 7167,
      "6dbd": 7168,
      "4b50": 7169,
      "1501": 7170,
      "2e19": 7171,
      "d050": 7172,
      "223e": 7173,
      "0e9e": 7174,
      "48d0": 7175,
      "7148": 7176,
      "b99a": 7177,
      "0a93": 7178,
      "0f64": 7179,
      "03b7": 7180,
      "0dfa": 7181,
      "091a": 7182,
      "4810": 7183,
      "045e": 7184,
      "07f9": 7185,
      "f20a": 7186,
      "c559": 7187,
      "3049": 7188,
      "057f": 7189,
      "799a": 7190,
      "ae50": 7191,
      "c99a": 7192,
      "0a60": 7193,
      "0a6a": 7194,
      "0a71": 7195,
      "0ab1": 7196,
      "09ab": 7197,
      "04ca": 7198,
      "8d01": 7199,
      "f82a": 7200,
      "451e": 7201,
      "0eaf": 7202,
      "a050": 7203,
      "1001": 7204,
      "07bf": 7205,
      "0b37": 7206,
      "0bca": 7207,
      "1d9d": 7208,
      "fafc": 7209,
      "1019": 7210,
      "5539": 7211,
      "e19a": 7212,
      "fd31": 7213,
      "0aa5": 7214,
      "0a82": 7215,
      "e58d": 7216,
      "03b2": 7217,
      "0b26": 7218,
      "5074": 7219,
      "0874": 7220,
      "05a0": 7221,
      "f8e8": 7222,
      "0ec0": 7223,
      "7279": 7224,
      "fe01": 7225,
      "b18d": 7226,
      "a775": 7227,
      "489e": 7228,
      "0d37": 7229,
      "0b38": 7230,
      "17ba": 7231,
      "2135": 7232,
      "3935": 7233,
      "3136": 7234,
      "3930": 7235,
      "5fc1": 7236,
      "aeb5": 7237,
      "bec1": 7238,
      "d19a": 7239,
      "03af": 7240,
      "03b3": 7241,
      "03b8": 7242,
      "0d12": 7243,
      "0d06": 7244,
      "0972": 7245,
      "48ec": 7246,
      "48e4": 7247,
      "0bec": 7248,
      "0bfe": 7249,
      "0bdf": 7250,
      "507d": 7251,
      "0811": 7252,
      "0863": 7253,
      "c319": 7254,
      "1d53": 7255,
      "f38e": 7256,
      "fda2": 7257,
      "f841": 7258,
      "a350": 7259,
      "c9a1": 7260,
      "f450": 7261,
      "998d": 7262,
      "4201": 7263,
      "df01": 7264,
      "5d9a": 7265,
      "d2cf": 7266,
      "0d3c": 7267,
      "0c0f": 7268,
      "50d9": 7269,
      "09cd": 7270,
      "8650": 7271,
      "81b1": 7272,
      "0f1e": 7273,
      "10bd": 7274,
      "03b6": 7275,
      "03be": 7276,
      "0d03": 7277,
      "0ca1": 7278,
      "09de": 7279,
      "48f6": 7280,
      "484a": 7281,
      "0bfd": 7282,
      "08f6": 7283,
      "1ca5": 7284,
      "1dad": 7285,
      "746d": 7286,
      "4479": 7287,
      "2d0a": 7288,
      "727c": 7289,
      "07b5": 7290,
      "11cc": 7291,
      "48d2": 7292,
      "159a": 7293,
      "41a1": 7294,
      "b54e": 7295,
      "cf50": 7296,
      "f99a": 7297,
      "0a70": 7298,
      "0655": 7299,
      "03bd": 7300,
      "0d28": 7301,
      "0d81": 7302,
      "0d56": 7303,
      "0cb2": 7304,
      "0903": 7305,
      "132d": 7306,
      "a776": 7307,
      "48c1": 7308,
      "0ec5": 7309,
      "4836": 7310,
      "299a": 7311,
      "399a": 7312,
      "3e5c": 7313,
      "5985": 7314,
      "f750": 7315,
      "03bb": 7316,
      "03c5": 7317,
      "0ce7": 7318,
      "0ce6": 7319,
      "098d": 7320,
      "0b15": 7321,
      "04ac": 7322,
      "9da1": 7323,
      "0e0a": 7324,
      "1775": 7325,
      "3901": 7326,
      "5e01": 7327,
      "7242": 7328,
      "043c": 7329,
      "058f": 7330,
      "719a": 7331,
      "cf81": 7332,
      "0d4d": 7333,
      "0d17": 7334,
      "0c4c": 7335,
      "09df": 7336,
      "0907": 7337,
      "0450": 7338,
      "1d4d": 7339,
      "fb7a": 7340,
      "8159": 7341,
      "9e23": 7342,
      "5009": 7343,
      "eee9": 7344,
      "119a": 7345,
      "4d37": 7346,
      "a750": 7347,
      "c129": 7348,
      "ed9a": 7349,
      "e1a1": 7350,
      "f19a": 7351,
      "0a0d": 7352,
      "0ab4": 7353,
      "06f9": 7354,
      "bb2d": 7355,
      "0cec": 7356,
      "0cf2": 7357,
      "0971": 7358,
      "0882": 7359,
      "a929": 7360,
      "7450": 7361,
      "7dfd": 7362,
      "4450": 7363,
      "6954": 7364,
      "0e61": 7365,
      "a4e1": 7366,
      "ce29": 7367,
      "4f01": 7368,
      "a173": 7369,
      "e7fa": 7370,
      "1f90": 7371,
      "0e0b": 7372,
      "1e75": 7373,
      "715e": 7374,
      "c59a": 7375,
      "c19a": 7376,
      "d409": 7377,
      "0ae9": 7378,
      "2301": 7379,
      "7cfb": 7380,
      "d90a": 7381,
      "03ba": 7382,
      "0d83": 7383,
      "0d69": 7384,
      "0c26": 7385,
      "0b49": 7386,
      "04ec": 7387,
      "04eb": 7388,
      "0458": 7389,
      "7501": 7390,
      "1903": 7391,
      "6d8d": 7392,
      "8da1": 7393,
      "fce1": 7394,
      "cdfc": 7395,
      "e9ad": 7396,
      "0e1c": 7397,
      "a21c": 7398,
      "ab65": 7399,
      "c050": 7400,
      "717f": 7401,
      "3535": 7402,
      "07dd": 7403,
      "f00a": 7404,
      "bad2": 7405,
      "2d9a": 7406,
      "4d9a": 7407,
      "5e26": 7408,
      "859a": 7409,
      "9736": 7410,
      "b19a": 7411,
      "c650": 7412,
      "0a9c": 7413,
      "0f50": 7414,
      "e5f1": 7415,
      "e58f": 7416,
      "03c2": 7417,
      "0d54": 7418,
      "0d2a": 7419,
      "0ce1": 7420,
      "0cfd": 7421,
      "0b01": 7422,
      "198d": 7423,
      "cd8d": 7424,
      "4350": 7425,
      "ed29": 7426,
      "7b0c": 7427,
      "ea0a": 7428,
      "8250": 7429,
      "8a0a": 7430,
      "818d": 7431,
      "667c": 7432,
      "919a": 7433,
      "07b9": 7434,
      "48cb": 7435,
      "0e98": 7436,
      "64d9": 7437,
      "7b43": 7438,
      "2c02": 7439,
      "3d9a": 7440,
      "519a": 7441,
      "7906": 7442,
      "8a49": 7443,
      "91a1": 7444,
      "fd9a": 7445,
      "0a23": 7446,
      "236d": 7447,
      "0d26": 7448,
      "0d33": 7449,
      "0d8a": 7450,
      "0c7f": 7451,
      "096c": 7452,
      "48e2": 7453,
      "0447": 7454,
      "196c": 7455,
      "1d8d": 7456,
      "7dac": 7457,
      "5ddc": 7458,
      "3c68": 7459,
      "84a5": 7460,
      "3501": 7461,
      "4901": 7462,
      "111a": 7463,
      "0939": 7464,
      "103b": 7465,
      "d93d": 7466,
      "2131": 7467,
      "2a56": 7468,
      "4802": 7469,
      "419a": 7470,
      "462a": 7471,
      "559a": 7472,
      "6401": 7473,
      "619a": 7474,
      "6d9a": 7475,
      "8f50": 7476,
      "85b6": 7477,
      "ad9a": 7478,
      "e99a": 7479,
      "0a4f": 7480,
      "e59a": 7481,
      "10a9": 7482,
      "102a": 7483,
      "05b6": 7484,
      "18d5": 7485,
      "0d14": 7486,
      "0c50": 7487,
      "0c79": 7488,
      "091d": 7489,
      "0453": 7490,
      "0841": 7491,
      "8329": 7492,
      "4d19": 7493,
      "adb1": 7494,
      "7d29": 7495,
      "6350": 7496,
      "ccb1": 7497,
      "f80a": 7498,
      "3c21": 7499,
      "4c50": 7500,
      "fb50": 7501,
      "89f1": 7502,
      "e9dc": 7503,
      "858d": 7504,
      "85a9": 7505,
      "c161": 7506,
      "0d3f": 7507,
      "0d30": 7508,
      "ce7a": 7509,
      "0942": 7510,
      "057e": 7511,
      "1d35": 7512,
      "359a": 7513,
      "4202": 7514,
      "659a": 7515,
      "6bb9": 7516,
      "7521": 7517,
      "9d9a": 7518,
      "9131": 7519,
      "d1dc": 7520,
      "e931": 7521,
      "2375": 7522,
      "0658": 7523,
      "03c8": 7524,
      "2871": 7525,
      "0d19": 7526,
      "0d74": 7527,
      "0d59": 7528,
      "0de9": 7529,
      "f0f7": 7530,
      "0cee": 7531,
      "0cfe": 7532,
      "7559": 7533,
      "1d9c": 7534,
      "298d": 7535,
      "7a12": 7536,
      "b901": 7537,
      "45a8": 7538,
      "7919": 7539,
      "3b50": 7540,
      "c58d": 7541,
      "489a": 7542,
      "916c": 7543,
      "ce09": 7544,
      "1035": 7545,
      "07aa": 7546,
      "0e2e": 7547,
      "0730": 7548,
      "1e96": 7549,
      "04db": 7550,
      "11dc": 7551,
      "259a": 7552,
      "3985": 7553,
      "4d31": 7554,
      "8750": 7555,
      "8806": 7556,
      "ba51": 7557,
      "ed95": 7558,
      "0f42": 7559,
      "06fa": 7560,
      "106f": 7561,
      "8001": 7562,
      "0dc7": 7563,
      "0b64": 7564,
      "0849": 7565,
      "b89c": 7566,
      "9c29": 7567,
      "2b66": 7568,
      "fc23": 7569,
      "2475": 7570,
      "07b3": 7571,
      "3679": 7572,
      "b375": 7573,
      "e4a6": 7574,
      "256c": 7575,
      "79dc": 7576,
      "0ee1": 7577,
      "9561": 7578,
      "c1e7": 7579,
      "1602": 7580,
      "a04a": 7581,
      "0d39": 7582,
      "07b1": 7583,
      "1e97": 7584,
      "076a": 7585,
      "11d1": 7586,
      "219a": 7587,
      "2151": 7588,
      "55cf": 7589,
      "56e1": 7590,
      "c1a1": 7591,
      "f802": 7592,
      "0ae2": 7593,
      "0ac9": 7594,
      "0f53": 7595,
      "0fe6": 7596,
      "bb81": 7597,
      "1091": 7598,
      "d99a": 7599,
      "03bf": 7600,
      "0d1d": 7601,
      "0d2c": 7602,
      "0c22": 7603,
      "0cf0": 7604,
      "4881": 7605,
      "5059": 7606,
      "0886": 7607,
      "6c7d": 7608,
      "22a9": 7609,
      "078c": 7610,
      "7ddc": 7611,
      "3d79": 7612,
      "a58d": 7613,
      "69dc": 7614,
      "d3d1": 7615,
      "0ef5": 7616,
      "e0b1": 7617,
      "3f01": 7618,
      "da60": 7619,
      "1d9e": 7620,
      "faf1": 7621,
      "7085": 7622,
      "3571": 7623,
      "459a": 7624,
      "49b6": 7625,
      "5e81": 7626,
      "6e50": 7627,
      "6995": 7628,
      "76fc": 7629,
      "7a49": 7630,
      "8179": 7631,
      "b751": 7632,
      "c40d": 7633,
      "0af5": 7634,
      "0fa9": 7635,
      "05b0": 7636,
      "d96c": 7637,
      "0d5b": 7638,
      "0d1a": 7639,
      "0d5e": 7640,
      "0dda": 7641,
      "0c20": 7642,
      "095d": 7643,
      "0be0": 7644,
      "50fd": 7645,
      "056d": 7646,
      "055c": 7647,
      "ac7c": 7648,
      "2422": 7649,
      "3675": 7650,
      "b359": 7651,
      "a3a1": 7652,
      "e48a": 7653,
      "e491": 7654,
      "358d": 7655,
      "349d": 7656,
      "3ae1": 7657,
      "1e69": 7658,
      "7c06": 7659,
      "e180": 7660,
      "f1dc": 7661,
      "103d": 7662,
      "072d": 7663,
      "a229": 7664,
      "21a1": 7665,
      "2e75": 7666,
      "41da": 7667,
      "61dc": 7668,
      "6139": 7669,
      "759a": 7670,
      "82a7": 7671,
      "819a": 7672,
      "a799": 7673,
      "a949": 7674,
      "b5c6": 7675,
      "b7c1": 7676,
      "f90e": 7677,
      "0fcb": 7678,
      "274d": 7679,
      "1057": 7680,
      "108a": 7681,
      "10ba": 7682,
      "0d65": 7683,
      "0d9b": 7684,
      "0d2d": 7685,
      "0d8e": 7686,
      "0d4a": 7687,
      "0dc6": 7688,
      "0cce": 7689,
      "09a9": 7690,
      "4864": 7691,
      "0b9a": 7692,
      "08e5": 7693,
      "081f": 7694,
      "a9dc": 7695,
      "6cff": 7696,
      "ad5c": 7697,
      "ad79": 7698,
      "1c5b": 7699,
      "29e9": 7700,
      "cd88": 7701,
      "cdf1": 7702,
      "07ec": 7703,
      "7dfc": 7704,
      "a8f2": 7705,
      "f925": 7706,
      "e471": 7707,
      "898d": 7708,
      "3219": 7709,
      "9a6b": 7710,
      "0e6b": 7711,
      "1779": 7712,
      "9969": 7713,
      "609e": 7714,
      "0e7f": 7715,
      "867a": 7716,
      "db31": 7717,
      "58d9": 7718,
      "07db": 7719,
      "48c3": 7720,
      "0726": 7721,
      "1e55": 7722,
      "1e5e": 7723,
      "b5d1": 7724,
      "0431": 7725,
      "3f49": 7726,
      "0759": 7727,
      "1d9a": 7728,
      "2581": 7729,
      "4529": 7730,
      "4bb9": 7731,
      "66e1": 7732,
      "6eb7": 7733,
      "7759": 7734,
      "7935": 7735,
      "7a5e": 7736,
      "77a1": 7737,
      "a650": 7738,
      "a659": 7739,
      "b731": 7740,
      "bfb1": 7741,
      "c179": 7742,
      "c54c": 7743,
      "caf7": 7744,
      "d855": 7745,
      "d959": 7746,
      "0d58": 7747,
      "0d9d": 7748,
      "0d9f": 7749,
      "0dce": 7750,
      "0cd5": 7751,
      "09ad": 7752,
      "4852": 7753,
      "0baa": 7754,
      "5079": 7755,
      "042b": 7756,
      "051f": 7757,
      "59a1": 7758,
      "4dad": 7759,
      "ad59": 7760,
      "dddc": 7761,
      "2b75": 7762,
      "1d5e": 7763,
      "7378": 7764,
      "07e2": 7765,
      "7dec": 7766,
      "7a67": 7767,
      "a3e5": 7768,
      "935d": 7769,
      "e8c1": 7770,
      "258d": 7771,
      "b983": 7772,
      "341d": 7773,
      "2d2b": 7774,
      "cb50": 7775,
      "3965": 7776,
      "7629": 7777,
      "a0b1": 7778,
      "c20a": 7779,
      "f517": 7780,
      "4250": 7781,
      "856c": 7782,
      "85e1": 7783,
      "bf75": 7784,
      "556c": 7785,
      "d16b": 7786,
      "316c": 7787,
      "218d": 7788,
      "ef0a": 7789,
      "3336": 7790,
      "ee69": 7791,
      "f1d1": 7792,
      "5041": 7793,
      "20c5": 7794,
      "208f": 7795,
      "0efd": 7796,
      "04da": 7797,
      "20c7": 7798,
      "2402": 7799,
      "35dc": 7800,
      "399e": 7801,
      "36b1": 7802,
      "4ec9": 7803,
      "5181": 7804,
      "699a": 7805,
      "67d9": 7806,
      "75dc": 7807,
      "9599": 7808,
      "96f1": 7809,
      "a1dc": 7810,
      "cd9a": 7811,
      "eb91": 7812,
      "e902": 7813,
      "f59a": 7814,
      "f6f1": 7815,
      "fb81": 7816,
      "0aaf": 7817,
      "0fba": 7818,
      "1071": 7819,
      "d90c": 7820,
      "d9ed": 7821,
      "d970": 7822,
      "03d9": 7823,
      "0d04": 7824,
      "0c19": 7825,
      "0974": 7826,
      "0978": 7827,
      "504d": 7828,
      "50ec": 7829,
      "0868": 7830,
      "1361": 7831,
      "1d80": 7832,
      "ac50": 7833,
      "735f": 7834,
      "0775": 7835,
      "4375": 7836,
      "a56c": 7837,
      "6569": 7838,
      "70e3": 7839,
      "6961": 7840,
      "b9e9": 7841,
      "b9dc": 7842,
      "79bb": 7843,
      "e98d": 7844,
      "996c": 7845,
      "c60a": 7846,
      "6250": 7847,
      "9289": 7848,
      "fe69": 7849,
      "5abb": 7850,
      "0c3b": 7851,
      "360e": 7852,
      "14c1": 7853,
      "378b": 7854,
      "5eba": 7855,
      "6948": 7856,
      "785": 7857,
      "8759": 7858,
      "8eb1": 7859,
      "8e41": 7860,
      "959a": 7861,
      "999a": 7862,
      "af50": 7863,
      "a535": 7864,
      "a209": 7865,
      "be50": 7866,
      "b5b9": 7867,
      "b8c5": 7868,
      "d5dc": 7869,
      "d2db": 7870,
      "e1f7": 7871,
      "f803": 7872,
      "0f20": 7873,
      "0f51": 7874,
      "069a": 7875,
      "108d": 7876,
      "03c0": 7877,
      "03c1": 7878,
      "0da5": 7879,
      "f0d8": 7880,
      "0cd3": 7881,
      "0cd9": 7882,
      "0ccd": 7883,
      "0983": 7884,
      "09f1": 7885,
      "0b1a": 7886,
      "509e": 7887,
      "0819": 7888,
      "0879": 7889,
      "0843": 7890,
      "1961": 7891,
      "a961": 7892,
      "6de1": 7893,
      "8ddc": 7894,
      "dd01": 7895,
      "249d": 7896,
      "2210": 7897,
      "b321": 7898,
      "5df1": 7899,
      "3df7": 7900,
      "5cd1": 7901,
      "658d": 7902,
      "44fd": 7903,
      "3375": 7904,
      "118d": 7905,
      "6901": 7906,
      "9459": 7907,
      "f98d": 7908,
      "3519": 7909,
      "621f": 7910,
      "1e64": 7911,
      "81e9": 7912,
      "5768": 7913,
      "e18d": 7914,
      "c18d": 7915,
      "6119": 7916,
      "0d3b": 7917,
      "0bb6": 7918,
      "0b39": 7919,
      "0e3f": 7920,
      "0c31": 7921,
      "1e58": 7922,
      "1e5d": 7923,
      "59ce": 7924,
      "8f93": 7925,
      "05dc": 7926,
      "2985": 7927,
      "6103": 7928,
      "711f": 7929,
      "9401": 7930,
      "91dc": 7931,
      "9f39": 7932,
      "b59a": 7933,
      "bd9d": 7934,
      "cb0a": 7935,
      "c839": 7936,
      "c74f": 7937,
      "dd35": 7938,
      "eff9": 7939,
      "f4d5": 7940,
      "0ad8": 7941,
      "0f03": 7942,
      "0fd5": 7943,
      "2775": 7944,
      "1075": 7945,
      "109b": 7946,
      "10f7": 7947,
      "0da2": 7948,
      "0d4e": 7949,
      "0d41": 7950,
      "0c61": 7951,
      "0c2a": 7952,
      "0c21": 7953,
      "0cd1": 7954,
      "0923": 7955,
      "09dc": 7956,
      "0956": 7957,
      "09da": 7958,
      "044f": 7959,
      "0822": 7960,
      "1ba9": 7961,
      "8da0": 7962,
      "59dc": 7963,
      "ecda": 7964,
      "ad8d": 7965,
      "dd83": 7966,
      "1c4a": 7967,
      "9c49": 7968,
      "1ddc": 7969,
      "6b04": 7970,
      "3d6c": 7971,
      "3db1": 7972,
      "5cad": 7973,
      "9851": 7974,
      "1489": 7975,
      "fd7c": 7976,
      "3c59": 7977,
      "692c": 7978,
      "3842": 7979,
      "94a4": 7980,
      "f9dc": 7981,
      "798d": 7982,
      "49dc": 7983,
      "e96c": 7984,
      "37f1": 7985,
      "727d": 7986,
      "7827": 7987,
      "a450": 7988,
      "9f10": 7989,
      "9f71": 7990,
      "c56c": 7991,
      "1f62": 7992,
      "6279": 7993,
      "8589": 7994,
      "dee9": 7995,
      "816c": 7996,
      "0e7e": 7997,
      "f18d": 7998,
      "f1a9": 7999,
      "47e7": 8000,
      "2675": 8001,
      "216c": 8002,
      "2189": 8003,
      "09c6": 8004,
      "0931": 8005,
      "0ecb": 8006,
      "0e5a": 8007,
      "08c5": 8008,
      "1e98": 8009,
      "5038": 8010,
      "d0a9": 8011,
      "40a1": 8012,
      "4089": 8013,
      "e609": 8014,
      "21dc": 8015,
      "51dc": 8016,
      "51b9": 8017,
      "71dc": 8018,
      "719d": 8019,
      "71f9": 8020,
      "7a3b": 8021,
      "ad9f": 8022,
      "abf6": 8023,
      "b5dc": 8024,
      "c1dc": 8025,
      "c709": 8026,
      "d65d": 8027,
      "d6b0": 8028,
      "e781": 8029,
      "0a8d": 8030,
      "0a2d": 8031,
      "18b5": 8032,
      "2850": 8033,
      "0da8": 8034,
      "0dcc": 8035,
      "0dd4": 8036,
      "0db8": 8037,
      "f077": 8038,
      "0c6e": 8039,
      "0cea": 8040,
      "0c9d": 8041,
      "0cdf": 8042,
      "1202": 8043,
      "0996": 8044,
      "0936": 8045,
      "0b53": 8046,
      "0ba8": 8047,
      "505c": 8048,
      "5021": 8049,
      "0442": 8050,
      "8d8d": 8051,
      "dda9": 8052,
      "1c53": 8053,
      "f303": 8054,
      "f37f": 8055,
      "2975": 8056,
      "29dc": 8057,
      "fc69": 8058,
      "cd9c": 8059,
      "7365": 8060,
      "7377": 8061,
      "7d81": 8062,
      "8071": 8063,
      "ed0a": 8064,
      "3c75": 8065,
      "f921": 8066,
      "25f1": 8067,
      "35ac": 8068,
      "90f9": 8069,
      "0e7c": 8070,
      "0e65": 8071,
      "2d01": 8072,
      "5801": 8073,
      "398d": 8074,
      "39dc": 8075,
      "2cbd": 8076,
      "b58d": 8077,
      "1f73": 8078,
      "2a01": 8079,
      "d561": 8080,
      "92a9": 8081,
      "a18d": 8082,
      "a16c": 8083,
      "1e4d": 8084,
      "4a61": 8085,
      "6531": 8086,
      "b780": 8087,
      "214d": 8088,
      "a675": 8089,
      "3539": 8090,
      "07bd": 8091,
      "0e49": 8092,
      "089d": 8093,
      "074f": 8094,
      "0525": 8095,
      "0ea1": 8096,
      "08c3": 8097,
      "0737": 8098,
      "078e": 8099,
      "0541": 8100,
      "50af": 8101,
      "0ef4": 8102,
      "e00a": 8103,
      "e049": 8104,
      "704e": 8105,
      "1e8b": 8106,
      "2fc9": 8107,
      "3141": 8108,
      "4d35": 8109,
      "499a": 8110,
      "5a5e": 8111,
      "69b1": 8112,
      "6999": 8113,
      "7436": 8114,
      "7781": 8115,
      "743a": 8116,
      "7951": 8117,
      "85dc": 8118,
      "8bc1": 8119,
      "86b2": 8120,
      "c7d9": 8121,
      "dab9": 8122,
      "ebb1": 8123,
      "f5dc": 8124,
      "f5c1": 8125,
      "f191": 8126,
      "0af3": 8127,
      "0a43": 8128,
      "0a95": 8129,
      "0a09": 8130,
      "0660": 8131,
      "105e": 8132,
      "10c5": 8133,
      "0d80": 8134,
      "0d20": 8135,
      "0d0e": 8136,
      "0c24": 8137,
      "0c62": 8138,
      "0cbd": 8139,
      "1250": 8140,
      "099c": 8141,
      "09a1": 8142,
      "0ba2": 8143,
      "505a": 8144,
      "0496": 8145,
      "087f": 8146,
      "19dc": 8147,
      "83a5": 8148,
      "6c51": 8149,
      "8ce1": 8150,
      "ec21": 8151,
      "4d1f": 8152,
      "ad25": 8153,
      "dd51": 8154,
      "2068": 8155,
      "2b79": 8156,
      "cddc": 8157,
      "07e8": 8158,
      "fd8d": 8159,
      "3cae": 8160,
      "441e": 8161,
      "33f9": 8162,
      "33d9": 8163,
      "84a1": 8164,
      "3576": 8165,
      "89dc": 8166,
      "9a01": 8167,
      "cb57": 8168,
      "a417": 8169,
      "99a9": 8170,
      "64e7": 8171,
      "c2a1": 8172,
      "f5a1": 8173,
      "7fe8": 8174,
      "160a": 8175,
      "b16c": 8176,
      "9680": 8177,
      "3f11": 8178,
      "d669": 8179,
      "41a9": 8180,
      "9169": 8181,
      "5161": 8182,
      "7bd1": 8183,
      "07b0": 8184,
      "07d9": 8185,
      "0c0d": 8186,
      "0890": 8187,
      "0e8d": 8188,
      "0e21": 8189,
      "5084": 8190,
      "fad4": 8191,
      "2f47": 8192,
      "b5d9": 8193,
      "cf97": 8194,
      "8899": 8195,
      "2831": 8196,
      "7c3d": 8197,
      "083b": 8198,
      "0eb1": 8199,
      "1135": 8200,
      "2f86": 8201,
      "319a": 8202,
      "6f09": 8203,
      "7d9a": 8204,
      "74c9": 8205,
      "7b81": 8206,
      "8d9a": 8207,
      "c802": 8208,
      "c905": 8209,
      "cb39": 8210,
      "daf1": 8211,
      "ea39": 8212,
      "fd99": 8213,
      "0a7c": 8214,
      "0ac2": 8215,
      "0f99": 8216,
      "7cc1": 8217,
      "1079": 8218,
      "109d": 8219,
      "10c9": 8220,
      "d98d": 8221,
      "0d94": 8222,
      "0d22": 8223,
      "0d0c": 8224,
      "0d47": 8225,
      "0c8a": 8226,
      "0c81": 8227,
      "0ca6": 8228,
      "0cd6": 8229,
      "09a5": 8230,
      "0925": 8231,
      "0b4d": 8232,
      "0b6b": 8233,
      "08b2": 8234,
      "a96c": 8235,
      "6c6d": 8236,
      "4d8c": 8237,
      "9cf0": 8238,
      "20e8": 8239,
      "1d21": 8240,
      "fcfd": 8241,
      "2459": 8242,
      "2421": 8243,
      "076c": 8244,
      "07a8": 8245,
      "7d6c": 8246,
      "6a50": 8247,
      "7a71": 8248,
      "9ddc": 8249,
      "330c": 8250,
      "4c11": 8251,
      "698d": 8252,
      "6979": 8253,
      "3829": 8254,
      "f9f1": 8255,
      "d31d": 8256,
      "d35c": 8257,
      "4921": 8258,
      "c98d": 8259,
      "bd8d": 8260,
      "2cb9": 8261,
      "7b54": 8262,
      "c2b9": 8263,
      "b514": 8264,
      "1f63": 8265,
      "c07e": 8266,
      "82f1": 8267,
      "8a11": 8268,
      "7c09": 8269,
      "b1a9": 8270,
      "d16c": 8271,
      "4789": 8272,
      "5729": 8273,
      "2101": 8274,
      "518d": 8275,
      "516c": 8276,
      "9b41": 8277,
      "0bb9": 8278,
      "07d1": 8279,
      "0a35": 8280,
      "093b": 8281,
      "0529": 8282,
      "073e": 8283,
      "07c4": 8284,
      "c9c8": 8285,
      "3236": 8286,
      "45dd": 8287,
      "6cc1": 8288,
      "15dc": 8289,
      "1179": 8290,
      "1195": 8291,
      "3402": 8292,
      "3ac1": 8293,
      "3d3a": 8294,
      "4751": 8295,
      "67b5": 8296,
      "79c6": 8297,
      "77d9": 8298,
      "8cc9": 8299,
      "8435": 8300,
      "9ecb": 8301,
      "a5dc": 8302,
      "bd31": 8303,
      "be51": 8304,
      "c121": 8305,
      "cdd1": 8306,
      "c4ce": 8307,
      "e1dc": 8308,
      "e621": 8309,
      "e124": 8310,
      "0a6b": 8311,
      "066d": 8312,
      "bb0a": 8313,
      "1080": 8314,
      "10ac": 8315,
      "1070": 8316,
      "03c3": 8317,
      "2889": 8318,
      "0d52": 8319,
      "0d7d": 8320,
      "0dd8": 8321,
      "f079": 8322,
      "f0b8": 8323,
      "0ce8": 8324,
      "0c45": 8325,
      "0cd0": 8326,
      "09a8": 8327,
      "0909": 8328,
      "0b7d": 8329,
      "0b99": 8330,
      "0b0f": 8331,
      "50f9": 8332,
      "1b75": 8333,
      "a911": 8334,
      "599a": 8335,
      "ad75": 8336,
      "dd6c": 8337,
      "1d64": 8338,
      "2961": 8339,
      "07f5": 8340,
      "077d": 8341,
      "07f3": 8342,
      "07fd": 8343,
      "f875": 8344,
      "a3f3": 8345,
      "4499": 8346,
      "11e9": 8347,
      "7095": 8348,
      "4c7d": 8349,
      "b970": 8350,
      "49f0": 8351,
      "c90a": 8352,
      "0ee3": 8353,
      "bd4d": 8354,
      "39ea": 8355,
      "e079": 8356,
      "c6e9": 8357,
      "5b50": 8358,
      "5b75": 8359,
      "b5f1": 8360,
      "aa69": 8361,
      "42fc": 8362,
      "d565": 8363,
      "85e5": 8364,
      "95ed": 8365,
      "e679": 8366,
      "a7e9": 8367,
      "c16c": 8368,
      "718d": 8369,
      "21c1": 8370,
      "0edc": 8371,
      "50a3": 8372,
      "a639": 8373,
      "07ca": 8374,
      "0eb4": 8375,
      "21b6": 8376,
      "2a21": 8377,
      "2441": 8378,
      "2555": 8379,
      "3931": 8380,
      "3dd1": 8381,
      "3109": 8382,
      "3981": 8383,
      "4771": 8384,
      "4e91": 8385,
      "4b07": 8386,
      "519d": 8387,
      "55b1": 8388,
      "5439": 8389,
      "5761": 8390,
      "5b39": 8391,
      "6596": 8392,
      "81dc": 8393,
      "8195": 8394,
      "87c7": 8395,
      "8e47": 8396,
      "9a50": 8397,
      "a136": 8398,
      "aef1": 8399,
      "cea6": 8400,
      "d25f": 8401,
      "e641": 8402,
      "fcc5": 8403,
      "f999": 8404,
      "fd45": 8405,
      "0a79": 8406,
      "0aef": 8407,
      "0a84": 8408,
      "0a49": 8409,
      "0f7a": 8410,
      "7c29": 8411,
      "2711": 8412,
      "108f": 8413,
      "186e": 8414,
      "0d75": 8415,
      "0dad": 8416,
      "0d5d": 8417,
      "0d7b": 8418,
      "0daa": 8419,
      "0d66": 8420,
      "0d48": 8421,
      "0c68": 8422,
      "0ce9": 8423,
      "0cdc": 8424,
      "0cfb": 8425,
      "0cf8": 8426,
      "0cd7": 8427,
      "1201": 8428,
      "091b": 8429,
      "09e9": 8430,
      "0967": 8431,
      "09f7": 8432,
      "0b04": 8433,
      "0b6c": 8434,
      "0b42": 8435,
      "5093": 8436,
      "04b8": 8437,
      "08e7": 8438,
      "0876": 8439,
      "08ed": 8440,
      "837f": 8441,
      "056c": 8442,
      "8c22": 8443,
      "598d": 8444,
      "596c": 8445,
      "ec1f": 8446,
      "4d8d": 8447,
      "4d51": 8448,
      "dd71": 8449,
      "1329": 8450,
      "1381": 8451,
      "1d6c": 8452,
      "296c": 8453,
      "74e9": 8454,
      "74b1": 8455,
      "7354": 8456,
      "7370": 8457,
      "0713": 8458,
      "077b": 8459,
      "0772": 8460,
      "07e6": 8461,
      "437a": 8462,
      "b3d2": 8463,
      "8850": 8464,
      "9df9": 8465,
      "9393": 8466,
      "44b9": 8467,
      "f96c": 8468,
      "d3e9": 8469,
      "9b6c": 8470,
      "618d": 8471,
      "e90a": 8472,
      "53e4": 8473,
      "c91a": 8474,
      "c972": 8475,
      "0e6d": 8476,
      "0ea9": 8477,
      "37f3": 8478,
      "78f9": 8479,
      "40f9": 8480,
      "642c": 8481,
      "e061": 8482,
      "e099": 8483,
      "cfd9": 8484,
      "4f63": 8485,
      "b27d": 8486,
      "d259": 8487,
      "d18d": 8488,
      "b789": 8489,
      "6667": 8490,
      "11b1": 8491,
      "4601": 8492,
      "416c": 8493,
      "ee0a": 8494,
      "bea9": 8495,
      "3001": 8496,
      "1005": 8497,
      "09c1": 8498,
      "0e4c": 8499,
      "0c35": 8500,
      "0897": 8501,
      "0ea5": 8502,
      "a8cf": 8503,
      "0947": 8504,
      "0e1e": 8505,
      "194c": 8506,
      "1c02": 8507,
      "2599": 8508,
      "2167": 8509,
      "220f": 8510,
      "2c3d": 8511,
      "3106": 8512,
      "45dc": 8513,
      "419e": 8514,
      "6135": 8515,
      "7ec1": 8516,
      "7448": 8517,
      "811e": 8518,
      "91da": 8519,
      "a59a": 8520,
      "a506": 8521,
      "ad95": 8522,
      "bd9a": 8523,
      "c50a": 8524,
      "c1b6": 8525,
      "c6d1": 8526,
      "dd9a": 8527,
      "d1b9": 8528,
      "d17a": 8529,
      "eb3d": 8530,
      "f126": 8531,
      "0a54": 8532,
      "0a12": 8533,
      "0a5c": 8534,
      "0afe": 8535,
      "0a51": 8536,
      "0a9e": 8537,
      "0f60": 8538,
      "0f77": 8539,
      "0f66": 8540,
      "0f55": 8541,
      "7c41": 8542,
      "bb99": 8543,
      "d9b1": 8544,
      "d921": 8545,
      "0d88": 8546,
      "0d27": 8547,
      "0d96": 8548,
      "f094": 8549,
      "f078": 8550,
      "0cf3": 8551,
      "0c42": 8552,
      "0912": 8553,
      "091f": 8554,
      "095e": 8555,
      "0b8d": 8556,
      "0b20": 8557,
      "0b77": 8558,
      "0b2b": 8559,
      "0bee": 8560,
      "0b5a": 8561,
      "0bd5": 8562,
      "50f3": 8563,
      "5027": 8564,
      "0441": 8565,
      "6801": 8566,
      "1b89": 8567,
      "75f1": 8568,
      "199a": 8569,
      "6d01": 8570,
      "6c22": 8571,
      "2b29": 8572,
      "2bfd": 8573,
      "1d74": 8574,
      "1d79": 8575,
      "24b1": 8576,
      "2268": 8577,
      "07bb": 8578,
      "07bc": 8579,
      "7d61": 8580,
      "6326": 8581,
      "63f1": 8582,
      "5ce9": 8583,
      "9819": 8584,
      "0635": 8585,
      "b98d": 8586,
      "0e94": 8587,
      "2d11": 8588,
      "2d6c": 8589,
      "7254": 8590,
      "f481": 8591,
      "6429": 8592,
      "b069": 8593,
      "7b01": 8594,
      "1f52": 8595,
      "abe0": 8596,
      "2a71": 8597,
      "aa89": 8598,
      "df71": 8599,
      "3050": 8600,
      "957c": 8601,
      "958d": 8602,
      "5e11": 8603,
      "bfe9": 8604,
      "5552": 8605,
      "da01": 8606,
      "5f18": 8607,
      "a60a": 8608,
      "66e9": 8609,
      "50ce": 8610,
      "bf91": 8611,
      "654d": 8612,
      "0d3d": 8613,
      "0799": 8614,
      "5044": 8615,
      "0ff7": 8616,
      "093c": 8617,
      "08df": 8618,
      "0742": 8619,
      "074b": 8620,
      "05d4": 8621,
      "0e5c": 8622,
      "073a": 8623,
      "20cb": 8624,
      "1e53": 8625,
      "1639": 8626,
      "37d1": 8627,
      "b0a1": 8628,
      "88d1": 8629,
      "cf49": 8630,
      "a241": 8631,
      "d221": 8632,
      "2731": 8633,
      "db41": 8634,
      "0945": 8635,
      "11a1": 8636,
      "15b0": 8637,
      "26f9": 8638,
      "3936": 8639,
      "31f6": 8640,
      "41dc": 8641,
      "5709": 8642,
      "65dc": 8643,
      "61ce": 8644,
      "6645": 8645,
      "6b88": 8646,
      "7bb1": 8647,
      "8af4": 8648,
      "8cc5": 8649,
      "9749": 8650,
      "a4c5": 8651,
      "a809": 8652,
      "a795": 8653,
      "ac39": 8654,
      "b8c9": 8655,
      "ba09": 8656,
      "b649": 8657,
      "c5dc": 8658,
      "c591": 8659,
      "d59a": 8660,
      "e503": 8661,
      "ee81": 8662,
      "ee5c": 8663,
      "f535": 8664,
      "f585": 8665,
      "0ac0": 8666,
      "0aa1": 8667,
      "0a91": 8668,
      "0ad1": 8669,
      "0ade": 8670,
      "0f33": 8671,
      "0f98": 8672,
      "7cf7": 8673,
      "e572": 8674,
      "52f9": 8675,
      "52dd": 8676,
      "106a": 8677,
      "d801": 8678,
      "18d1": 8679,
      "28c1": 8680,
      "0dc3": 8681,
      "0dee": 8682,
      "0c6a": 8683,
      "0cf9": 8684,
      "0c9b": 8685,
      "0cc2": 8686,
      "0980": 8687,
      "0961": 8688,
      "09d4": 8689,
      "09a2": 8690,
      "0906": 8691,
      "0b12": 8692,
      "0b7a": 8693,
      "0b61": 8694,
      "0bd7": 8695,
      "5020": 8696,
      "0422": 8697,
      "1be1": 8698,
      "a906": 8699,
      "0559": 8700,
      "5972": 8701,
      "ecf1": 8702,
      "4da1": 8703,
      "9c61": 8704,
      "9cf1": 8705,
      "9c81": 8706,
      "1374": 8707,
      "c364": 8708,
      "c3f9": 8709,
      "1df1": 8710,
      "07ad": 8711,
      "80e4": 8712,
      "ed8d": 8713,
      "ed61": 8714,
      "3d8d": 8715,
      "6399": 8716,
      "5c1f": 8717,
      "a572": 8718,
      "cc79": 8719,
      "65a1": 8720,
      "a381": 8721,
      "9394": 8722,
      "4bf1": 8723,
      "e80a": 8724,
      "33cc": 8725,
      "4c01": 8726,
      "e422": 8727,
      "2561": 8728,
      "9b21": 8729,
      "45ac": 8730,
      "158d": 8731,
      "35a9": 8732,
      "9022": 8733,
      "cb19": 8734,
      "bd01": 8735,
      "9971": 8736,
      "60e1": 8737,
      "2c75": 8738,
      "2ca1": 8739,
      "2c81": 8740,
      "7bed": 8741,
      "c2d9": 8742,
      "3b19": 8743,
      "c5ad": 8744,
      "abe1": 8745,
      "7f67": 8746,
      "ce01": 8747,
      "9572": 8748,
      "1e6f": 8749,
      "bf0a": 8750,
      "e729": 8751,
      "4aec": 8752,
      "efe1": 8753,
      "4661": 8754,
      "c101": 8755,
      "500b": 8756,
      "5004": 8757,
      "bee5": 8758,
      "2049": 8759,
      "1103": 8760,
      "0d3e": 8761,
      "0e4b": 8762,
      "0c3d": 8763,
      "08d4": 8764,
      "0830": 8765,
      "0756": 8766,
      "cfa1": 8767,
      "d345": 8768,
      "901a": 8769,
      "0506": 8770,
      "1c0a": 8771,
      "1759": 8772,
      "1eb1": 8773,
      "173d": 8774,
      "1a31": 8775,
      "1fb9": 8776,
      "3a9e": 8777,
      "31f0": 8778,
      "4f50": 8779,
      "4931": 8780,
      "4535": 8781,
      "4e71": 8782,
      "4782": 8783,
      "5650": 8784,
      "585": 8785,
      "59b6": 8786,
      "5ac7": 8787,
      "65b6": 8788,
      "62b1": 8789,
      "6ad9": 8790,
      "6fd8": 8791,
      "780b": 8792,
      "85ce": 8793,
      "8ff1": 8794,
      "9681": 8795,
      "9b09": 8796,
      "9111": 8797,
      "a50e": 8798,
      "a7a4": 8799,
      "b1da": 8800,
      "b33d": 8801,
      "b156": 8802,
      "c19e": 8803,
      "c985": 8804,
      "c539": 8805,
      "c125": 8806,
      "c251": 8807,
      "c68a": 8808,
      "d651": 8809,
      "e6c4": 8810,
      "fd35": 8811,
      "f935": 8812,
      "f299": 8813,
      "fdc9": 8814,
      "0ae5": 8815,
      "0a1c": 8816,
      "0aed": 8817,
      "0a5a": 8818,
      "0a87": 8819,
      "0fe8": 8820,
      "0fa2": 8821,
      "0f0f": 8822,
      "06ba": 8823,
      "e56c": 8824,
      "e5b6": 8825,
      "5201": 8826,
      "1022": 8827,
      "10ae": 8828,
      "d979": 8829,
      "d972": 8830,
      "03c4": 8831,
      "0d8c": 8832,
      "0d1c": 8833,
      "0ddc": 8834,
      "0d4c": 8835,
      "0dc9": 8836,
      "f0b9": 8837,
      "f0b5": 8838,
      "0ce4": 8839,
      "0c65": 8840,
      "0c99": 8841,
      "0cb1": 8842,
      "0c92": 8843,
      "0c46": 8844,
      "0904": 8845,
      "096e": 8846,
      "0985": 8847,
      "09d2": 8848,
      "0bff": 8849,
      "0b68": 8850,
      "0b74": 8851,
      "0b86": 8852,
      "0b97": 8853,
      "0bd1": 8854,
      "5056": 8855,
      "080a": 8856,
      "085d": 8857,
      "08a8": 8858,
      "192b": 8859,
      "c829": 8860,
      "6da9": 8861,
      "addc": 8862,
      "1ca3": 8863,
      "1d2a": 8864,
      "bcf9": 8865,
      "fc93": 8866,
      "b371": 8867,
      "dc11": 8868,
      "e350": 8869,
      "e319": 8870,
      "116c": 8871,
      "1168": 8872,
      "7050": 8873,
      "706d": 8874,
      "b90a": 8875,
      "45fc": 8876,
      "d422": 8877,
      "e26b": 8878,
      "e2f9": 8879,
      "c901": 8880,
      "c96c": 8881,
      "c903": 8882,
      "2ddc": 8883,
      "4066": 8884,
      "17e9": 8885,
      "396c": 8886,
      "3a70": 8887,
      "1a69": 8888,
      "f56c": 8889,
      "c021": 8890,
      "d511": 8891,
      "d5a1": 8892,
      "f70a": 8893,
      "b219": 8894,
      "d0e1": 8895,
      "4ea9": 8896,
      "f619": 8897,
      "4a69": 8898,
      "4341": 8899,
      "318d": 8900,
      "2169": 8901,
      "4669": 8902,
      "489d": 8903,
      "4154": 8904,
      "0409": 8905,
      "81c9": 8906,
      "29c9": 8907,
      "1004": 8908,
      "e016": 8909,
      "6549": 8910,
      "1013": 8911,
      "0a37": 8912,
      "0a3e": 8913,
      "0ff9": 8914,
      "0ea0": 8915,
      "07a4": 8916,
      "c9c1": 8917,
      "4631": 8918,
      "2fa9": 8919,
      "30d1": 8920,
      "d0c1": 8921,
      "05c6": 8922,
      "11fb": 8923,
      "20ce": 8924,
      "2172": 8925,
      "2506": 8926,
      "2103": 8927,
      "31b6": 8928,
      "4135": 8929,
      "5536": 8930,
      "5172": 8931,
      "5ff9": 8932,
      "6f3d": 8933,
      "679a": 8934,
      "740a": 8935,
      "7ac9": 8936,
      "7777": 8937,
      "7526": 8938,
      "8fb9": 8939,
      "810b": 8940,
      "a1a1": 8941,
      "a531": 8942,
      "ad41": 8943,
      "adc2": 8944,
      "b011": 8945,
      "b585": 8946,
      "b441": 8947,
      "c571": 8948,
      "c141": 8949,
      "c53d": 8950,
      "d0c5": 8951,
      "e1f1": 8952,
      "ec03": 8953,
      "e19d": 8954,
      "e331": 8955,
      "e4c9": 8956,
      "fe50": 8957,
      "f50a": 8958,
      "f172": 8959,
      "f77f": 8960,
      "f7c6": 8961,
      "0aa9": 8962,
      "0aad": 8963,
      "0f80": 8964,
      "0fad": 8965,
      "0fdd": 8966,
      "d8d1": 8967,
      "d9dc": 8968,
      "2875": 8969,
      "2851": 8970,
      "0de3": 8971,
      "0deb": 8972,
      "0d55": 8973,
      "0dcf": 8974,
      "0dd2": 8975,
      "f0d7": 8976,
      "0c48": 8977,
      "1209": 8978,
      "0959": 8979,
      "0bf9": 8980,
      "0be6": 8981,
      "0b09": 8982,
      "0b4a": 8983,
      "50f1": 8984,
      "50f6": 8985,
      "04e9": 8986,
      "0420": 8987,
      "081b": 8988,
      "1972": 8989,
      "1906": 8990,
      "c881": 8991,
      "6da1": 8992,
      "05e5": 8993,
      "59a8": 8994,
      "5903": 8995,
      "1c54": 8996,
      "c311": 8997,
      "c3cd": 8998,
      "ac22": 8999,
      "73a9": 9000,
      "077a": 9001,
      "6a83": 9002,
      "ed01": 9003,
      "eddc": 9004,
      "5d6c": 9005,
      "98af": 9006,
      "a369": 9007,
      "a3b2": 9008,
      "4b75": 9009,
      "e351": 9010,
      "44f1": 9011,
      "f914": 9012,
      "f926": 9013,
      "d379": 9014,
      "b96c": 9015,
      "458d": 9016,
      "456c": 9017,
      "7989": 9018,
      "8901": 9019,
      "3422": 9020,
      "9ae4": 9021,
      "538c": 9022,
      "0efa": 9023,
      "0e1b": 9024,
      "2d8d": 9025,
      "5869": 9026,
      "78fd": 9027,
      "b455": 9028,
      "1701": 9029,
      "b075": 9030,
      "c201": 9031,
      "1f64": 9032,
      "f569": 9033,
      "6275": 9034,
      "7fe1": 9035,
      "dbf9": 9036,
      "2f71": 9037,
      "bf01": 9038,
      "bbb9": 9039,
      "6537": 9040,
      "b7e0": 9041,
      "3175": 9042,
      "f10a": 9043,
      "a6a9": 9044,
      "e16c": 9045,
      "3339": 9046,
      "6719": 9047,
      "67e1": 9048,
      "8619": 9049,
      "5007": 9050,
      "716c": 9051,
      "be0a": 9052,
      "3c39": 9053,
      "29c6": 9054,
      "a19e": 9055,
      "96b9": 9056,
      "0ed3": 9057,
      "11c6": 9058,
      "0895": 9059,
      "05c3": 9060,
      "0753": 9061,
      "fcc1": 9062,
      "6ed0": 9063,
      "1136": 9064,
      "17b1": 9065,
      "1e35": 9066,
      "2a50": 9067,
      "2dc6": 9068,
      "2185": 9069,
      "21a5": 9070,
      "2bbd": 9071,
      "22c9": 9072,
      "31dc": 9073,
      "3e09": 9074,
      "41c9": 9075,
      "5103": 9076,
      "56c6": 9077,
      "6409": 9078,
      "66c9": 9079,
      "6dc1": 9080,
      "65c3": 9081,
      "7f31": 9082,
      "7d49": 9083,
      "8019": 9084,
      "a691": 9085,
      "b59d": 9086,
      "c536": 9087,
      "c6b1": 9088,
      "df50": 9089,
      "d7c9": 9090,
      "f171": 9091,
      "0a10": 9092,
      "0ae4": 9093,
      "0a73": 9094,
      "0a63": 9095,
      "0a2f": 9096,
      "0aa6": 9097,
      "0a0b": 9098,
      "0f89": 9099,
      "0f91": 9100,
      "104d": 9101,
      "1065": 9102,
      "1024": 9103,
      "1086": 9104,
      "1084": 9105,
      "1875": 9106,
      "03cf": 9107,
      "03c6": 9108,
      "28a9": 9109,
      "0d64": 9110,
      "0ddd": 9111,
      "0dbd": 9112,
      "0d0f": 9113,
      "0d42": 9114,
      "0d0b": 9115,
      "f076": 9116,
      "0cf5": 9117,
      "0cc4": 9118,
      "0ccb": 9119,
      "09fa": 9120,
      "09aa": 9121,
      "092b": 9122,
      "0b80": 9123,
      "0b58": 9124,
      "506c": 9125,
      "5090": 9126,
      "5096": 9127,
      "086e": 9128,
      "08b4": 9129,
      "0884": 9130,
      "c876": 9131,
      "a98d": 9132,
      "a981": 9133,
      "6ddc": 9134,
      "b866": 9135,
      "6c89": 9136,
      "05a2": 9137,
      "59fb": 9138,
      "ec2b": 9139,
      "4d01": 9140,
      "1c75": 9141,
      "9cfd": 9142,
      "c350": 9143,
      "f3f3": 9144,
      "fca9": 9145,
      "cd6c": 9146,
      "2479": 9147,
      "07ff": 9148,
      "0715": 9149,
      "0718": 9150,
      "7d8d": 9151,
      "6b2d": 9152,
      "4391": 9153,
      "ed54": 9154,
      "5cb1": 9155,
      "a841": 9156,
      "a567": 9157,
      "cc1e": 9158,
      "fd19": 9159,
      "3c25": 9160,
      "7a79": 9161,
      "fae5": 9162,
      "9309": 9163,
      "e389": 9164,
      "1159": 9165,
      "70ff": 9166,
      "4c29": 9167,
      "696c": 9168,
      "fb69": 9169,
      "9421": 9170,
      "d3b1": 9171,
      "2572": 9172,
      "498d": 9173,
      "496c": 9174,
      "4959": 9175,
      "4972": 9176,
      "0eac": 9177,
      "0e18": 9178,
      "a261": 9179,
      "7265": 9180,
      "7822": 9181,
      "a4fd": 9182,
      "f218": 9183,
      "a0e9": 9184,
      "ea19": 9185,
      "f58d": 9186,
      "eb60": 9187,
      "cf69": 9188,
      "f711": 9189,
      "b25d": 9190,
      "f611": 9191,
      "f617": 9192,
      "4a79": 9193,
      "b722": 9194,
      "7776": 9195,
      "8775": 9196,
      "416a": 9197,
      "500d": 9198,
      "97f9": 9199,
      "918d": 9200,
      "519c": 9201,
      "21c6": 9202,
      "0ede": 9203,
      "07b7": 9204,
      "0bbb": 9205,
      "203a": 9206,
      "0b3f": 9207,
      "0a3c": 9208,
      "0e35": 9209,
      "0748": 9210,
      "07a5": 9211,
      "0788": 9212,
      "50d1": 9213,
      "0530": 9214,
      "e0db": 9215,
      "e535": 9216,
      "8039": 9217,
      "90ac": 9218,
      "d239": 9219,
      "99c9": 9220,
      "eed9": 9221,
      "a0c9": 9222,
      "7231": 9223,
      "b609": 9224,
      "4ad0": 9225,
      "a2d2": 9226,
      "094a": 9227,
      "07f7": 9228,
      "1a46": 9229,
      "2a93": 9230,
      "214f": 9231,
      "31a1": 9232,
      "3439": 9233,
      "4103": 9234,
      "4e75": 9235,
      "41c6": 9236,
      "4f57": 9237,
      "5f3a": 9238,
      "5fce": 9239,
      "5ac8": 9240,
      "5b5f": 9241,
      "640d": 9242,
      "6dc9": 9243,
      "8e21": 9244,
      "9f06": 9245,
      "a671": 9246,
      "aac1": 9247,
      "a299": 9248,
      "b750": 9249,
      "ba21": 9250,
      "be71": 9251,
      "c103": 9252,
      "ce41": 9253,
      "d506": 9254,
      "d291": 9255,
      "d6c1": 9256,
      "e185": 9257,
      "e749": 9258,
      "e7ae": 9259,
      "f2b1": 9260,
      "0a16": 9261,
      "0ab7": 9262,
      "0fbb": 9263,
      "0f11": 9264,
      "0f74": 9265,
      "0f1a": 9266,
      "0faa": 9267,
      "0f2d": 9268,
      "0f05": 9269,
      "2712": 9270,
      "27a5": 9271,
      "bbd1": 9272,
      "c001": 9273,
      "10b1": 9274,
      "10b7": 9275,
      "d9b6": 9276,
      "0d8b": 9277,
      "f0fd": 9278,
      "0caf": 9279,
      "0c10": 9280,
      "0c59": 9281,
      "0cac": 9282,
      "0c5f": 9283,
      "1241": 9284,
      "094d": 9285,
      "09e0": 9286,
      "09fc": 9287,
      "099d": 9288,
      "09be": 9289,
      "0b5b": 9290,
      "0b17": 9291,
      "0b55": 9292,
      "0b91": 9293,
      "50e4": 9294,
      "507b": 9295,
      "047b": 9296,
      "0485": 9297,
      "0436": 9298,
      "0865": 9299,
      "0815": 9300,
      "08a1": 9301,
      "08fd": 9302,
      "08b9": 9303,
      "756c": 9304,
      "1925": 9305,
      "1978": 9306,
      "c861": 9307,
      "5419": 9308,
      "547d": 9309,
      "8d6c": 9310,
      "1c63": 9311,
      "1ca2": 9312,
      "9c8d": 9313,
      "9c7d": 9314,
      "2903": 9315,
      "ac51": 9316,
      "cd0a": 9317,
      "7491": 9318,
      "0783": 9319,
      "07ac": 9320,
      "36ed": 9321,
      "b391": 9322,
      "5c01": 9323,
      "656c": 9324,
      "1469": 9325,
      "fddc": 9326,
      "f8a5": 9327,
      "dc22": 9328,
      "7a59": 9329,
      "8879": 9330,
      "4b53": 9331,
      "e8f9": 9332,
      "707d": 9333,
      "7069": 9334,
      "69f6": 9335,
      "e4a9": 9336,
      "e4e0": 9337,
      "c422": 9338,
      "b919": 9339,
      "0e62": 9340,
      "2d75": 9341,
      "bdb6": 9342,
      "724d": 9343,
      "7211": 9344,
      "5849": 9345,
      "b479": 9346,
      "b499": 9347,
      "3969": 9348,
      "6450": 9349,
      "b06e": 9350,
      "c501": 9351,
      "eaa9": 9352,
      "eb75": 9353,
      "aaa5": 9354,
      "821e": 9355,
      "db29": 9356,
      "d51a": 9357,
      "df0a": 9358,
      "f719": 9359,
      "85a5": 9360,
      "4fe7": 9361,
      "b250": 9362,
      "7697": 9363,
      "0e79": 9364,
      "ae15": 9365,
      "870a": 9366,
      "667b": 9367,
      "11b5": 9368,
      "9711": 9369,
      "7249": 9370,
      "07b6": 9371,
      "07be": 9372,
      "0b31": 9373,
      "0797": 9374,
      "0bc1": 9375,
      "1015": 9376,
      "0a38": 9377,
      "0e4e": 9378,
      "0ec2": 9379,
      "0e92": 9380,
      "08d6": 9381,
      "07a2": 9382,
      "20c9": 9383,
      "5039": 9384,
      "0efe": 9385,
      "0767": 9386,
      "0430": 9387,
      "3237": 9388,
      "e9c9": 9389,
      "c087": 9390,
      "3602": 9391,
      "734e": 9392,
      "0e85": 9393,
      "1ec9": 9394,
      "1a81": 9395,
      "2906": 9396,
      "2b99": 9397,
      "29b8": 9398,
      "3a02": 9399,
      "3172": 9400,
      "35b6": 9401,
      "3d99": 9402,
      "4172": 9403,
      "41b6": 9404,
      "5621": 9405,
      "6906": 9406,
      "6e39": 9407,
      "7dce": 9408,
      "7ea1": 9409,
      "76ea": 9410,
      "7f2c": 9411,
      "8103": 9412,
      "8b31": 9413,
      "9d35": 9414,
      "95dc": 9415,
      "9dc1": 9416,
      "972d": 9417,
      "aa50": 9418,
      "ad91": 9419,
      "a102": 9420,
      "b1a1": 9421,
      "b7be": 9422,
      "c59e": 9423,
      "c14b": 9424,
      "de50": 9425,
      "df59": 9426,
      "d133": 9427,
      "e1b6": 9428,
      "e9c6": 9429,
      "e4c5": 9430,
      "ea51": 9431,
      "e1d9": 9432,
      "f751": 9433,
      "f43d": 9434,
      "f1c9": 9435,
      "f7a2": 9436,
      "0a68": 9437,
      "0ad3": 9438,
      "0a7e": 9439,
      "0ac7": 9440,
      "0f69": 9441,
      "0f71": 9442,
      "0fb5": 9443,
      "2319": 9444,
      "069e": 9445,
      "7c9b": 9446,
      "52c1": 9447,
      "107b": 9448,
      "1062": 9449,
      "1021": 9450,
      "105f": 9451,
      "18f1": 9452,
      "28b8": 9453,
      "2855": 9454,
      "0d9c": 9455,
      "0db0": 9456,
      "0c54": 9457,
      "0ca3": 9458,
      "0cb9": 9459,
      "0c70": 9460,
      "0c4e": 9461,
      "0cc8": 9462,
      "09e5": 9463,
      "090a": 9464,
      "098c": 9465,
      "097d": 9466,
      "09e3": 9467,
      "09eb": 9468,
      "09dd": 9469,
      "09b9": 9470,
      "09f0": 9471,
      "09ae": 9472,
      "09d8": 9473,
      "0b7c": 9474,
      "0b60": 9475,
      "0be8": 9476,
      "0bad": 9477,
      "0ba4": 9478,
      "0bdd": 9479,
      "0bf4": 9480,
      "0b66": 9481,
      "0b8e": 9482,
      "50b4": 9483,
      "04a7": 9484,
      "08f8": 9485,
      "6859": 9486,
      "1bf8": 9487,
      "758d": 9488,
      "1929": 9489,
      "b8a9": 9490,
      "b8ad": 9491,
      "0572": 9492,
      "0518": 9493,
      "eca5": 9494,
      "ecd1": 9495,
      "1375": 9496,
      "1321": 9497,
      "2029": 9498,
      "1d8c": 9499,
      "1d85": 9500,
      "1d05": 9501,
      "29ad": 9502,
      "fcf9": 9503,
      "cdb6": 9504,
      "73ff": 9505,
      "73e1": 9506,
      "071c": 9507,
      "0724": 9508,
      "07f1": 9509,
      "6b11": 9510,
      "802c": 9511,
      "3da1": 9512,
      "63b9": 9513,
      "630e": 9514,
      "a822": 9515,
      "a8f1": 9516,
      "6554": 9517,
      "3c71": 9518,
      "7a1b": 9519,
      "7ae1": 9520,
      "937b": 9521,
      "4c4f": 9522,
      "4c49": 9523,
      "f903": 9524,
      "d399": 9525,
      "e483": 9526,
      "c419": 9527,
      "c415": 9528,
      "794d": 9529,
      "796c": 9530,
      "7969": 9531,
      "3475": 9532,
      "34bd": 9533,
      "616c": 9534,
      "d4f1": 9535,
      "8b69": 9536,
      "a201": 9537,
      "58f9": 9538,
      "3929": 9539,
      "99ad": 9540,
      "9972": 9541,
      "99a1": 9542,
      "2cd9": 9543,
      "c2af": 9544,
      "3a75": 9545,
      "b56f": 9546,
      "1f75": 9547,
      "1fd9": 9548,
      "f579": 9549,
      "62e9": 9550,
      "ebe9": 9551,
      "cf0a": 9552,
      "30b5": 9553,
      "9579": 9554,
      "b2a9": 9555,
      "e60a": 9556,
      "5ec0": 9557,
      "e70a": 9558,
      "5554": 9559,
      "cae5": 9560,
      "d20a": 9561,
      "d10a": 9562,
      "0e78": 9563,
      "26e9": 9564,
      "66a9": 9565,
      "500f": 9566,
      "5005": 9567,
      "1e47": 9568,
      "0ed6": 9569,
      "07d5": 9570,
      "0b36": 9571,
      "0bc6": 9572,
      "1018": 9573,
      "0a30": 9574,
      "0ff1": 9575,
      "0c37": 9576,
      "0c32": 9577,
      "0ecd": 9578,
      "0e81": 9579,
      "054b": 9580,
      "20cd": 9581,
      "59c1": 9582,
      "5035": 9583,
      "0437": 9584,
      "7081": 9585,
      "1f47": 9586,
      "3085": 9587,
      "b031": 9588,
      "9eda": 9589,
      "2f91": 9590,
      "8886": 9591,
      "0e84": 9592,
      "0745": 9593,
      "059e": 9594,
      "0e05": 9595,
      "094e": 9596,
      "17ca": 9597,
      "1bc1": 9598,
      "2106": 9599,
      "219e": 9600,
      "21f4": 9601,
      "259d": 9602,
      "25b9": 9603,
      "3a50": 9604,
      "3105": 9605,
      "3f81": 9606,
      "3ef1": 9607,
      "47c1": 9608,
      "4509": 9609,
      "51f1": 9610,
      "5eb7": 9611,
      "6839": 9612,
      "6c31": 9613,
      "6ad5": 9614,
      "7536": 9615,
      "75b6": 9616,
      "770b": 9617,
      "8e59": 9618,
      "8fd1": 9619,
      "862e": 9620,
      "aeb9": 9621,
      "a135": 9622,
      "a9b6": 9623,
      "a935": 9624,
      "ab33": 9625,
      "a7b1": 9626,
      "a4c1": 9627,
      "a349": 9628,
      "aaf9": 9629,
      "c9b6": 9630,
      "cd36": 9631,
      "dc0a": 9632,
      "d503": 9633,
      "d689": 9634,
      "f1b6": 9635,
      "f739": 9636,
      "fb49": 9637,
      "f2b7": 9638,
      "f9d1": 9639,
      "0abc": 9640,
      "0af8": 9641,
      "0ab6": 9642,
      "0ad6": 9643,
      "0acd": 9644,
      "0f22": 9645,
      "0fa4": 9646,
      "0f8b": 9647,
      "0f06": 9648,
      "0f47": 9649,
      "06ed": 9650,
      "069d": 9651,
      "7ce6": 9652,
      "e5dc": 9653,
      "10c0": 9654,
      "10bf": 9655,
      "d905": 9656,
      "03cd": 9657,
      "0d6a": 9658,
      "0de0": 9659,
      "0dfc": 9660,
      "0de6": 9661,
      "0d99": 9662,
      "0d71": 9663,
      "0d9e": 9664,
      "0c01": 9665,
      "0c76": 9666,
      "0cbf": 9667,
      "0c95": 9668,
      "0c27": 9669,
      "0c49": 9670,
      "0917": 9671,
      "09bf": 9672,
      "0955": 9673,
      "092e": 9674,
      "0b11": 9675,
      "0bf1": 9676,
      "0b71": 9677,
      "0bd2": 9678,
      "50ee": 9679,
      "0850": 9680,
      "0857": 9681,
      "084c": 9682,
      "c849": 9683,
      "a90a": 9684,
      "a92d": 9685,
      "b8e1": 9686,
      "5451": 9687,
      "8d17": 9688,
      "59d6": 9689,
      "4d54": 9690,
      "4de4": 9691,
      "4d69": 9692,
      "1da9": 9693,
      "1da0": 9694,
      "2979": 9695,
      "bc22": 9696,
      "cd54": 9697,
      "cd03": 9698,
      "0780": 9699,
      "07e0": 9700,
      "7d01": 9701,
      "7d63": 9702,
      "7db9": 9703,
      "7d09": 9704,
      "6b50": 9705,
      "6b29": 9706,
      "4379": 9707,
      "6aad": 9708,
      "ed6c": 9709,
      "edb6": 9710,
      "5d8d": 9711,
      "5d09": 9712,
      "3d01": 9713,
      "9815": 9714,
      "cce9": 9715,
      "9d0a": 9716,
      "e3c3": 9717,
      "e3b0": 9718,
      "33bb": 9719,
      "7024": 9720,
      "697d": 9721,
      "f924": 9722,
      "d3b2": 9723,
      "8469": 9724,
      "e475": 9725,
      "2565": 9726,
      "156c": 9727,
      "89a1": 9728,
      "4978": 9729,
      "9ae9": 9730,
      "5311": 9731,
      "0e68": 9732,
      "0e13": 9733,
      "0eed": 9734,
      "0e0d": 9735,
      "a20a": 9736,
      "bd6c": 9737,
      "37f4": 9738,
      "7269": 9739,
      "7811": 9740,
      "f279": 9741,
      "3972": 9742,
      "7661": 9743,
      "9903": 9744,
      "64fb": 9745,
      "1f01": 9746,
      "1f7a": 9747,
      "1a11": 9748,
      "ab50": 9749,
      "a10a": 9750,
      "2fe0": 9751,
      "55ad": 9752,
      "cae1": 9753,
      "5a19": 9754,
      "8101": 9755,
      "f19c": 9756,
      "47a9": 9757,
      "2168": 9758,
      "5f69": 9759,
      "a683": 9760,
      "11b6": 9761,
      "e10a": 9762,
      "9e24": 9763,
      "41ad": 9764,
      "6772": 9765,
      "6716": 9766,
      "8617": 9767,
      "50c2": 9768,
      "50cd": 9769,
      "3e0d": 9770,
      "7172": 9771,
      "1106": 9772,
      "07b2": 9773,
      "0bb3": 9774,
      "079f": 9775,
      "0bc4": 9776,
      "101b": 9777,
      "0937": 9778,
      "0e9a": 9779,
      "0e8f": 9780,
      "0521": 9781,
      "07c2": 9782,
      "1d95": 9783,
      "7001": 9784,
      "50d8": 9785,
      "60c8": 9786,
      "aed1": 9787,
      "e041": 9788,
      "8f99": 9789,
      "9009": 9790,
      "d089": 9791,
      "abc5": 9792,
      "90d9": 9793,
      "8e79": 9794,
      "a0cd": 9795,
      "0e89": 9796,
      "0eba": 9797,
      "0702": 9798,
      "1196": 9799,
      "17c9": 9800,
      "1f09": 9801,
      "1f59": 9802,
      "1349": 9803,
      "2b85": 9804,
      "2444": 9805,
      "3d95": 9806,
      "399d": 9807,
      "3af9": 9808,
      "3691": 9809,
      "4681": 9810,
      "4184": 9811,
      "5b3d": 9812,
      "5331": 9813,
      "5349": 9814,
      "5591": 9815,
      "5e49": 9816,
      "6a09": 9817,
      "6935": 9818,
      "6b85": 9819,
      "6291": 9820,
      "683d": 9821,
      "7ea5": 9822,
      "8172": 9823,
      "8a81": 9824,
      "8efd": 9825,
      "8e16": 9826,
      "9f50": 9827,
      "9106": 9828,
      "9935": 9829,
      "96a1": 9830,
      "96d9": 9831,
      "a5c6": 9832,
      "a9c6": 9833,
      "a121": 9834,
      "a7cd": 9835,
      "b1dc": 9836,
      "b655": 9837,
      "bccd": 9838,
      "b507": 9839,
      "c906": 9840,
      "c431": 9841,
      "ce86": 9842,
      "c285": 9843,
      "cb5f": 9844,
      "df21": 9845,
      "d528": 9846,
      "e506": 9847,
      "e99e": 9848,
      "e181": 9849,
      "eab8": 9850,
      "f9c6": 9851,
      "f54d": 9852,
      "f771": 9853,
      "f2d1": 9854,
      "0a6d": 9855,
      "0a75": 9856,
      "0a62": 9857,
      "0af0": 9858,
      "0abd": 9859,
      "0a46": 9860,
      "0a4b": 9861,
      "0f5b": 9862,
      "0fb3": 9863,
      "0f72": 9864,
      "0f61": 9865,
      "0f16": 9866,
      "0f88": 9867,
      "0fbe": 9868,
      "2302": 9869,
      "e5a2": 9870,
      "276b": 9871,
      "bb45": 9872,
      "1068": 9873,
      "102f": 9874,
      "1818": 9875,
      "d901": 9876,
      "d9a2": 9877,
      "03ce": 9878,
      "2822": 9879,
      "0dff": 9880,
      "0d53": 9881,
      "0de2": 9882,
      "0d7f": 9883,
      "0df7": 9884,
      "0dae": 9885,
      "0d21": 9886,
      "0dbe": 9887,
      "0dd5": 9888,
      "f0fc": 9889,
      "0c8c": 9890,
      "0cdd": 9891,
      "0cb4": 9892,
      "0c57": 9893,
      "0c43": 9894,
      "0c2f": 9895,
      "0c9e": 9896,
      "0cca": 9897,
      "09e7": 9898,
      "0988": 9899,
      "0b0c": 9900,
      "5022": 9901,
      "505d": 9902,
      "08e8": 9903,
      "0813": 9904,
      "08ea": 9905,
      "0877": 9906,
      "08e1": 9907,
      "0870": 9908,
      "084f": 9909,
      "6875": 9910,
      "75a1": 9911,
      "c801": 9912,
      "5471": 9913,
      "0583": 9914,
      "59a5": 9915,
      "4d6c": 9916,
      "ad6c": 9917,
      "ada0": 9918,
      "dd72": 9919,
      "1c22": 9920,
      "9c22": 9921,
      "1d6f": 9922,
      "fc89": 9923,
      "fceb": 9924,
      "fc4f": 9925,
      "cdb5": 9926,
      "cda7": 9927,
      "7389": 9928,
      "0764": 9929,
      "07e4": 9930,
      "36e9": 9931,
      "4321": 9932,
      "5da1": 9933,
      "a501": 9934,
      "6511": 9935,
      "14f9": 9936,
      "fd6c": 9937,
      "a375": 9938,
      "88b1": 9939,
      "9d8d": 9940,
      "9d6c": 9941,
      "9da5": 9942,
      "e369": 9943,
      "4475": 9944,
      "331d": 9945,
      "1175": 9946,
      "6972": 9947,
      "fba1": 9948,
      "f90a": 9949,
      "845c": 9950,
      "8481": 9951,
      "2501": 9952,
      "b9f3": 9953,
      "7977": 9954,
      "8972": 9955,
      "90f5": 9956,
      "9029": 9957,
      "6154": 9958,
      "32b9": 9959,
      "e9ac": 9960,
      "e9a1": 9961,
      "8b53": 9962,
      "8b67": 9963,
      "c9d9": 9964,
      "0e01": 9965,
      "2da1": 9966,
      "cb71": 9967,
      "464b": 9968,
      "b422": 9969,
      "b4ea": 9970,
      "3903": 9971,
      "e07d": 9972,
      "b022": 9973,
      "7b2f": 9974,
      "c2a3": 9975,
      "5b59": 9976,
      "3b7c": 9977,
      "ab75": 9978,
      "620a": 9979,
      "aa13": 9980,
      "8a29": 9981,
      "1676": 9982,
      "f775": 9983,
      "f71d": 9984,
      "4f8c": 9985,
      "4fed": 9986,
      "1e80": 9987,
      "1e1d": 9988,
      "b175": 9989,
      "b189": 9990,
      "558d": 9991,
      "f086": 9992,
      "d201": 9993,
      "4cc8": 9994,
      "a779": 9995,
      "7695": 9996,
      "77f1": 9997,
      "af0d": 9998,
      "8dc6": 9999,
      "7ef9": 10000,
      "be01": 10001,
      "be19": 10002,
      "50c8": 10003,
      "50c5": 10004,
      "3125": 10005,
      "cac5": 10006,
      "8d4b": 10007,
      "079a": 10008,
      "0e45": 10009,
[...]
